<pad>
<unk>
<D>
<0x00>
<0x01>
<0x02>
<0x03>
<0x04>
<0x05>
<0x06>
<0x07>
<0x08>
<0x09>
<0x0A>
<0x0B>
<0x0C>
<0x0D>
<0x0E>
<0x0F>
<0x10>
<0x11>
<0x12>
<0x13>
<0x14>
<0x15>
<0x16>
<0x17>
<0x18>
<0x19>
<0x1A>
<0x1B>
<0x1C>
<0x1D>
<0x1E>
<0x1F>
<0x20>
<0x21>
<0x22>
<0x23>
<0x24>
<0x25>
<0x26>
<0x27>
<0x28>
<0x29>
<0x2A>
<0x2B>
<0x2C>
<0x2D>
<0x2E>
<0x2F>
<0x30>
<0x31>
<0x32>
<0x33>
<0x34>
<0x35>
<0x36>
<0x37>
<0x38>
<0x39>
<0x3A>
<0x3B>
<0x3C>
<0x3D>
<0x3E>
<0x3F>
<0x40>
<0x41>
<0x42>
<0x43>
<0x44>
<0x45>
<0x46>
<0x47>
<0x48>
<0x49>
<0x4A>
<0x4B>
<0x4C>
<0x4D>
<0x4E>
<0x4F>
<0x50>
<0x51>
<0x52>
<0x53>
<0x54>
<0x55>
<0x56>
<0x57>
<0x58>
<0x59>
<0x5A>
<0x5B>
<0x5C>
<0x5D>
<0x5E>
<0x5F>
<0x60>
<0x61>
<0x62>
<0x63>
<0x64>
<0x65>
<0x66>
<0x67>
<0x68>
<0x69>
<0x6A>
<0x6B>
<0x6C>
<0x6D>
<0x6E>
<0x6F>
<0x70>
<0x71>
<0x72>
<0x73>
<0x74>
<0x75>
<0x76>
<0x77>
<0x78>
<0x79>
<0x7A>
<0x7B>
<0x7C>
<0x7D>
<0x7E>
<0x7F>
<0x80>
<0x81>
<0x82>
<0x83>
<0x84>
<0x85>
<0x86>
<0x87>
<0x88>
<0x89>
<0x8A>
<0x8B>
<0x8C>
<0x8D>
<0x8E>
<0x8F>
<0x90>
<0x91>
<0x92>
<0x93>
<0x94>
<0x95>
<0x96>
<0x97>
<0x98>
<0x99>
<0x9A>
<0x9B>
<0x9C>
<0x9D>
<0x9E>
<0x9F>
<0xA0>
<0xA1>
<0xA2>
<0xA3>
<0xA4>
<0xA5>
<0xA6>
<0xA7>
<0xA8>
<0xA9>
<0xAA>
<0xAB>
<0xAC>
<0xAD>
<0xAE>
<0xAF>
<0xB0>
<0xB1>
<0xB2>
<0xB3>
<0xB4>
<0xB5>
<0xB6>
<0xB7>
<0xB8>
<0xB9>
<0xBA>
<0xBB>
<0xBC>
<0xBD>
<0xBE>
<0xBF>
<0xC0>
<0xC1>
<0xC2>
<0xC3>
<0xC4>
<0xC5>
<0xC6>
<0xC7>
<0xC8>
<0xC9>
<0xCA>
<0xCB>
<0xCC>
<0xCD>
<0xCE>
<0xCF>
<0xD0>
<0xD1>
<0xD2>
<0xD3>
<0xD4>
<0xD5>
<0xD6>
<0xD7>
<0xD8>
<0xD9>
<0xDA>
<0xDB>
<0xDC>
<0xDD>
<0xDE>
<0xDF>
<0xE0>
<0xE1>
<0xE2>
<0xE3>
<0xE4>
<0xE5>
<0xE6>
<0xE7>
<0xE8>
<0xE9>
<0xEA>
<0xEB>
<0xEC>
<0xED>
<0xEE>
<0xEF>
<0xF0>
<0xF1>
<0xF2>
<0xF3>
<0xF4>
<0xF5>
<0xF6>
<0xF7>
<0xF8>
<0xF9>
<0xFA>
<0xFB>
<0xFC>
<0xFD>
<0xFE>
<0xFF>
▁d
es
▁l
en
on
▁p
▁c
▁s
▁de
re
ou
an
qu
ai
▁a
er
ent
ti
▁qu
et
▁m
ar
eu
in
▁la
▁f
is
le
it
▁t
▁n
il
un
▁et
or
▁le
te
▁les
▁v
el
▁à
om
▁r
our
us
tion
▁en
▁des
ant
▁pr
ait
au
▁un
eur
▁par
ment
ans
▁au
as
ont
ce
al
▁b
▁que
oi
me
ri
ét
est
▁du
ais
ur
ous
▁j
és
▁g
mp
▁qui
▁L
▁C
ra
ch
ons
res
tre
▁dans
os
li
▁re
ne
▁av
▁pl
at
▁com
de
que
▁pour
▁ch
▁se
ci
les
▁il
se
▁M
ag
ée
▁dé
▁e
elle
ation
ui
ouv
si
▁in
ro
▁est
▁P
▁ne
end
▁une
ab
▁pas
▁S
▁ét
ol
ain
▁h
▁D
ie
▁é
pp
▁plus
▁sur
▁o
ff
▁ce
onn
ran
ers
▁,
ec
▁A
ac
aire
out
ir
di
▁pro
ère
▁I
ér
▁(
ort
▁tr
am
▁ou
eurs
▁;
▁con
ul
ès
ien
▁ré
ig
oin
oit
pr
av
ois
ut
▁su
eux
ette
▁di
ité
▁—
▁son
▁E
▁ex
▁i
ces
..
oir
▁si
ure
▁peu
▁B
amp
ge
▁:
ées
une
aient
▁avec
and
ue
oy
▁R
ve
▁cons
té
ens
▁J
aux
mes
mi
én
▁T
▁nous
▁&
▁V
ême
▁tout
▁li
ré
▁sont
▁sa
▁on
▁ar
▁lui
ques
age
ux
▁cette
ot
▁aux
ist
▁F
mb
▁ser
ord
▁mais
uis
ence
▁ces
aut
▁ses
▁cont
ap
être
▁G
▁comme
▁leur
ance
che
uit
▁y
▁je
▁ent
ine
ier
▁fait
▁N
ct
ond
lement
▁Il
emp
ati
éri
▁for
elles
ill
éc
▁vous
ail
▁même
▁bien
▁O
ille
▁an
tions
id
▁»
▁comm
▁«
▁dis
ours
ard
ion
ert
tit
▁Le
ors
um
ad
▁gran
▁app
co
▁elle
▁comp
tres
iv
eau
cc
roit
▁mar
▁deux
app
ex
▁nom
ter
▁parti
ic
▁tou
able
▁quel
ign
ég
▁dev
bre
tes
oup
ale
▁été
▁me
tin
bli
ay
▁dont
▁sans
ils
▁al
tr
▁peut
▁être
près
oul
onc
▁che
▁faire
aires
▁La
▁pe
pos
ang
▁Les
▁H
ble
min
cl
op
▁pré
).
ations
▁as
onne
oint
▁où
▁avait
ussi
▁pre
ass
▁tous
▁cel
éra
par
▁mon
ite
des
▁était
▁per
rer
▁tra
▁Ch
▁ter
▁ont
endre
vent
ante
▁car
oins
ction
éd
▁no
▁donn
ise
▁es
endant
bs
▁tro
sion
ments
▁point
▁ti
▁dit
aiss
fi
oire
iss
▁ju
ères
ES
▁ma
▁droit
▁mal
core
rent
▁jus
og
▁at
▁sous
▁gén
eure
▁trouv
▁Q
▁encore
▁leurs
.,
▁premi
ente
omme
▁fut
▁temp
ong
▁vi
▁fr
▁ad
ph
im
ins
▁imp
ants
▁pu
ique
oc
aint
▁seu
▁pos
▁ils
vi
▁!
rait
▁entre
cip
ver
▁rés
▁res
▁prés
▁puis
▁grand
ace
nes
▁.
▁aussi
enir
lé
▁gr
ieu
aine
▁Je
▁Par
▁rec
▁cor
êt
ler
em
▁man
▁cr
tement
II
oli
▁dem
omp
),
▁ins
▁moins
ez
▁très
orte
jet
▁On
ière
ôt
cher
gn
▁prin
uer
lle
▁rép
ON
uiv
cr
fin
▁prop
▁fer
ses
▁soit
ém
...
tat
int
▁toutes
aî
ût
use
▁cour
▁br
lt
▁temps
▁contre
ution
art
▁ren
▁pouv
▁dire
▁mo
ains
▁Fran
▁port
▁pers
▁eff
iè
▁dép
▁ac
▁jour
▁ca
él
ales
▁autres
ouver
rib
vers
mé
▁cas
▁U
mis
ép
▁déc
▁ni
▁après
▁En
▁emp
▁toute
▁ain
ues
ose
erv
▁dou
ents
▁char
▁dés
duit
RE
▁mes
▁rapp
▁pay
quel
▁diff
▁ainsi
ages
▁aut
▁sou
ches
▁att
▁non
▁dét
▁trois
▁der
are
▁long
▁Mais
▁nouv
ges
ition
tif
aill
▁lieu
▁col
cle
▁acc
▁part
oient
▁pass
cu
▁pres
gt
ature
▁ord
▁eu
▁autre
agn
Le
jours
▁doit
▁avoir
ettre
▁ép
▁faut
▁cet
▁suiv
▁né
èrent
▁celui
▁exp
▁cl
omb
▁or
▁Ce
▁quelques
▁ceux
ommes
tique
ob
▁Qu
▁sec
dit
gl
▁lors
ies
up
▁conn
vre
▁min
omm
ici
▁toujours
oci
▁fl
▁publi
▁génér
▁?
ête
▁nos
ions
▁ai
▁nombre
▁donc
▁vol
TI
▁celle
sement
if
bles
▁mil
▁ab
▁rem
▁conf
▁beau
ables
▁do
ances
aque
▁déf
▁'
ps
▁ob
all
▁mont
▁vo
▁vie
du
tis
ves
asse
▁quelque
▁jusqu
était
cs
▁aff
ix
ER
mbl
illes
▁avant
dre
ures
▁partie
▁dern
▁co
cul
▁ph
enant
itu
mer
▁notre
ect
▁cert
▁lég
▁sol
▁fran
▁prof
ourn
▁princip
▁fem
cess
▁nature
▁X
.)
AN
autre
AR
▁fort
▁loi
▁moy
év
cep
▁sp
été
enti
▁rég
▁cap
▁trav
▁petit
▁inf
ret
antes
▁Paris
▁fa
puis
▁quand
▁fois
quer
ités
▁indi
ande
▁ass
▁DE
att
ire
cri
▁vers
ate
▁Et
▁grande
▁moi
ement
▁Mar
▁France
vis
▁am
enne
▁enf
▁auc
▁repr
▁ég
ys
▁là
▁fond
sez
gé
▁jam
▁ann
enu
▁im
ger
igne
La
▁souv
act
Les
lic
arti
téri
alité
LE
▁reg
▁proc
ieux
euse
▁coup
▁rien
▁gra
▁jeu
▁De
▁arri
▁int
▁tu
ieurs
▁contr
anc
fois
ines
aison
▁corps
mbre
▁trans
▁tant
▁général
▁préc
▁mort
▁mé
▁commun
iers
▁voi
ets
iste
▁ans
▁pendant
▁sera
▁inter
▁voul
▁hab
lè
la
▁ag
▁ouv
▁fai
▁Saint
▁chez
ole
▁ver
coup
▁cent
▁fais
▁alors
▁env
rai
titu
▁premier
ress
▁rend
▁fin
▁off
▁elles
iti
gu
agne
Il
IN
EN
rie
▁jamais
tant
lig
▁sav
mée
▁bon
▁-
▁bl
IS
▁cô
crit
▁cré
▁depuis
▁cela
▁esp
▁pays
▁An
même
▁plusieurs
vres
fs
ade
▁ret
▁Si
▁donner
▁gar
ration
reur
air
▁roi
ame
▁rapport
▁supp
prit
▁trop
ient
nent
tru
lev
▁inc
ach
▁jours
ber
yp
▁nécess
▁étaient
▁chev
iter
ense
▁beaucoup
▁Dieu
▁cro
nement
▁conc
entes
▁consid
uti
▁mot
▁hommes
lu
▁rest
▁voy
▁fur
▁pris
alement
▁assez
hé
▁mati
▁demand
tel
▁Ar
atre
els
anti
▁fit
acc
lis
oute
▁laiss
pendant
ari
arr
ellement
▁chaque
▁rev
▁év
▁présent
vement
rat
exp
▁dispos
▁seul
▁obs
ell
▁feu
mble
▁sau
ats
▁mom
▁différ
▁Au
çais
▁déj
od
aines
ange
eures
▁Nous
▁mis
▁op
orm
▁Dans
▁rep
▁souvent
èg
▁ville
▁sup
sible
▁personn
▁déb
▁gl
▁Elle
aud
▁arr
opp
Ar
aître
▁vis
▁comb
imp
▁val
▁cri
▁devant
tout
▁ven
culi
ème
yant
uss
be
▁mois
▁main
▁terre
▁ri
▁forme
....
▁font
▁sign
ern
▁sé
onde
▁votre
▁compr
▁femme
▁première
▁voir
quelle
ode
▁etc
iens
▁haut
uite
IT
▁cir
▁fam
▁siè
▁effet
▁bas
ché
gan
▁serait
▁étab
era
▁reconn
▁homme
ib
ences
▁Se
OU
▁all
dem
après
▁eux
▁moment
▁près
dic
rée
ds
▁particuli
▁laquelle
▁guer
▁peuvent
ann
ath
▁parce
▁propri
eil
cid
▁form
rit
ore
eut
autres
▁simp
iques
▁bou
▁soci
sus
ze
▁seulement
▁déjà
▁vin
▁résul
▁avons
▁remp
êmes
uire
rés
▁dév
ccup
An
▁II
aisse
équ
ud
CH
ili
ourd
▁trouve
▁juge
▁Un
▁te
▁servi
▁Cette
érêt
▁empl
▁dom
olog
▁peup
▁mari
▁décl
oie
œur
▁K
▁quatre
▁doi
▁cher
dition
oign
▁sal
temp
▁conv
ilité
▁avaient
▁cal
▁â
▁cin
▁pie
▁vér
ène
▁côté
▁lu
En
▁contin
▁pens
oût
▁monde
▁trait
▁poli
▁cause
▁serv
ile
▁gouver
▁chose
▁ques
ide
hui
▁resp
sions
erce
▁règ
▁pouvoir
▁jou
▁Pour
vin
ateur
anci
▁ci
▁produit
oses
▁reç
ième
▁raison
▁représ
▁fra
action
▁st
▁mer
▁suc
▁travail
inaire
▁po
ft
tiques
▁surtout
▁moyen
▁peine
lus
▁ind
▁civ
▁mor
▁ref
▁suff
▁voit
▁cond
igneur
met
▁viv
▁place
▁propos
ris
▁~
qué
▁art
▁ayant
esp
▁manière
▁Cons
aît
▁lit
▁porte
endu
ult
gent
▁abs
▁caract
▁sujet
▁sais
minist
ront
▁rel
▁reste
uses
▁tête
▁donne
▁répond
ât
ailleurs
con
▁obli
▁quoi
▁lar
ume
▁presque
▁plac
avait
▁généra
▁sens
▁pat
▁fils
rier
▁In
ément
lir
▁id
▁suite
▁tomb
▁puiss
▁celles
▁parties
uc
▁)
▁bes
▁sub
TION
gré
▁guerre
▁fav
▁Al
▁anci
▁ici
▁act
▁É
éci
▁capit
ner
▁prendre
▁roy
▁divers
▁vrai
▁compos
irent
▁exemp
avoir
▁rou
he
▁sy
là
aff
oque
pt
▁mouv
heure
homme
erie
▁français
▁yeux
▁trib
▁W
▁appel
▁arti
▁sang
ération
▁cou
▁us
▁père
▁heure
▁Re
▁suis
▁vert
ises
▁aucun
▁dél
istre
euses
RA
▁remar
ss
▁distin
aille
itions
▁can
cons
▁force
éch
vous
▁regard
▁maî
▁dernier
▁fix
voir
abord
ites
IE
▁mieux
▁lorsqu
iles
▁enfin
jourd
▁bois
elopp
ention
amb
erm
▁suivant
▁gen
▁exc
TE
▁donné
eaux
êtes
▁gros
▁jeune
▁représent
▁piè
raient
▁mét
orité
▁chac
▁sembl
▁cependant
œu
▁furent
éré
ainte
cles
On
lie
▁pai
dire
ection
çon
oix
▁dist
▁k
▁aucune
▁subs
ori
▁contraire
ome
crip
▁rév
inf
ust
uri
état
▁Com
▁fonc
temps
▁aj
▁Pr
istoire
eff
ouis
▁réf
ug
AU
▁lorsque
▁ta
ess
▁spéci
▁bar
enc
cteur
▁lequel
▁rendre
gr
ieur
▁tour
isation
isme
yst
▁fig
oth
illet
▁relig
suite
▁supéri
th
▁étran
olution
enf
▁heures
▁Ces
erre
tite
quis
▁not
▁maison
▁vue
Je
ll
▁Ils
▁dix
ication
▁question
▁personne
▁droits
▁LA
lier
▁Char
▁vu
oires
▁choses
▁préf
▁avoit
mon
rez
▁public
ordre
quels
▁doivent
▁bat
QU
st
tice
▁fac
AL
ouss
aci
mens
▁pén
▁réun
▁titre
rage
▁grands
IL
▁mus
ourg
off
▁éch
▁ten
ermin
ambre
▁bonne
▁gu
rir
aissance
▁él
▁réc
ub
▁*
▁nation
ierre
Qu
▁dépar
▁Pro
▁nouveau
amment
▁déli
aise
az
▁mai
▁employ
▁anim
▁ait
uy
▁étant
▁import
ditions
▁habit
▁doute
UR
▁conséqu
▁milieu
▁arriv
▁sor
▁prom
▁cheval
▁sin
▁seront
▁pau
▁déclar
▁succ
▁dès
tra
▁situ
né
tir
▁sc
ières
atique
▁ess
▁mettre
▁prix
▁sac
entre
cont
▁dém
avant
▁faite
OM
ètres
▁famille
érer
ression
▁sorte
▁march
▁eut
étend
▁seule
rique
auv
▁cer
▁nécessaire
hy
tie
▁organ
▁maint
▁divis
▁loin
▁sent
▁priv
▁vos
OR
▁aurait
▁espè
ouvert
▁gens
erci
aute
▁vois
▁malad
▁second
▁prév
ron
▁pouvait
olu
III
▁cit
▁thé
▁Une
▁petite
DE
dessus
istes
▁Des
▁nouvelle
▁peuple
▁compte
▁propre
oux
▁éc
▁faits
▁sel
▁propriét
▁chemin
▁mod
issent
gue
▁aujourd
▁ap
▁fourn
▁met
AP
lex
▁va
▁cinq
qui
▁mêmes
▁sus
ctions
▁sort
▁occup
▁siècle
▁"
▁demande
▁[
aj
▁impos
▁rece
rant
▁hum
tien
▁six
▁fille
▁Vous
reux
▁Que
▁Or
▁Jean
aite
▁vingt
▁disc
▁biens
titution
ule
▁nul
▁état
▁chap
Et
▁mère
▁coul
NE
ii
ettres
bres
▁mille
Ch
▁ple
▁sci
▁détermin
▁pou
LA
▁camp
▁veut
ribu
▁pap
▁service
▁table
▁saint
▁Sa
tier
▁procéd
Ce
▁ensuite
étab
▁liber
▁écrit
▁ress
▁mains
▁également
▁lois
▁intérêt
èle
truction
vid
▁opp
anger
onsieur
udi
▁trouver
rop
▁memb
man
▁circons
▁écl
ablement
adi
▁chef
article
gment
èrement
vant
▁tribun
▁enfants
▁imm
▁gouvernement
▁•
▁Ju
▁pron
fe
urer
fl
esprit
▁plan
tive
▁offici
▁commerce
▁cœur
▁retr
térieur
▁lang
ède
▁souff
▁rencont
▁observ
▁obt
iller
▁doul
▁sour
SE
dec
▁tém
ident
ète
ast
▁Car
▁développ
tances
pi
▁gau
ah
▁objet
▁destin
ienne
▁cours
▁contra
oph
▁troup
âtre
je
vier
▁fou
▁faci
IV
amen
▁Louis
▁besoin
pe
▁tri
bes
lor
aume
onneur
▁péri
▁syst
▁simple
ME
▁loc
eté
▁voix
raph
▁lettre
tt
▁trou
ril
tats
quelles
▁nuit
▁exéc
Un
▁étoit
lin
ception
▁Th
▁ir
▁journ
▁vient
erc
insi
▁ense
▁parf
duction
ubli
aï
▁duc
ça
▁liv
▁condam
orme
▁bord
▁somme
▁liberté
âte
▁uti
Mais
rière
▁plu
▁x
▁conduit
▁viol
▁appar
port
▁vari
▁possible
▁z
▁personnes
▁vou
médi
onté
▁chacun
tance
▁précéd
ereur
onner
▁parmi
▁droite
▁parler
▁tard
▁ton
tal
▁mour
ude
▁mat
tiers
sp
▁considéra
▁pi
adame
▁devait
▁Y
icile
▁Mont
▁terr
▁Ph
▁fe
▁lo
onné
ich
▁mars
ensi
▁exemple
▁livres
ientôt
▁devoir
▁foi
▁quit
▁succes
▁travers
▁senti
▁naturel
uel
▁élev
tifs
quoi
rig
arer
tient
vention
ueur
▁grandes
heur
▁riv
gne
ortion
ime
uré
▁liqu
cription
▁faites
▁atte
iser
sembl
▁rac
In
▁III
ia
abri
RO
▁gauche
arde
▁men
inter
▁relati
▁pourrait
▁don
▁valeur
▁eût
▁conseil
ateurs
▁rap
▁bout
▁ordinaire
▁pal
▁tes
aitement
▁commis
ing
inc
▁matière
.-
tiv
▁années
▁Tout
▁cul
▁paix
▁mouvement
▁société
rim
▁milit
ture
▁aura
lique
▁envir
▁conditions
CE
oles
▁tend
▁ligne
oï
ministration
▁telle
resse
liqu
ilà
▁jeunes
▁prod
ivers
▁prince
▁Con
▁semble
ane
▁plais
uni
▁desc
erve
aul
bon
oyer
▁ve
▁travaux
ager
▁command
▁entière
andis
▁juin
issement
▁nég
▁accomp
▁nav
tip
▁mur
uits
▁caractère
titude
▁continu
▁gard
ccas
▁Roi
chant
▁générale
▁comment
▁mauv
▁moyens
▁charge
oss
▁vérit
opul
tent
▁esprit
▁femmes
erver
▁justice
oll
▁but
▁passer
▁autant
▁savoir
▁cav
▁emb
▁■
▁longtemps
▁ET
▁Du
▁médec
armée
enait
ENT
aign
▁maître
▁fré
èse
▁conserv
ôle
▁complè
▁poss
veill
▁No
▁dess
▁rempl
Dans
ysi
▁pare
▁tel
Or
▁système
rais
▁francs
RI
iennent
▁prend
▁vertu
alités
glise
▁conse
OL
ènes
ailles
▁ant
▁premiers
▁Mon
▁présente
▁ami
▁Cour
▁change
fer
▁pied
lication
vient
obs
▁afin
▁DES
▁compagn
▁vit
▁er
▁principe
▁soir
▁août
antité
rand
enus
ind
▁certain
tic
isl
clus
▁séri
▁petits
▁écri
▁arrêt
élè
▁^
outer
rages
▁blan
▁grâ
assi
▁comte
▁juillet
uve
▁pieds
▁bientôt
bé
issant
eterre
▁lettres
▁oppos
▁quantité
▁quelquefois
éné
▁publique
▁mér
▁mesure
▁dég
▁sommes
▁soient
xe
▁étrang
▁permet
▁profond
▁jan
ettes
erne
tu
▁malade
▁garde
▁dernière
▁fall
▁mi
agit
De
▁prov
▁bras
tié
▁livre
▁jet
▁membres
▁Voy
▁inféri
▁commence
▁frapp
ardin
▁éle
▁repro
▁Pl
gleterre
▁milli
▁fil
Al
argent
▁popul
ètre
rice
▁quelle
urg
▁accord
ueil
▁eng
▁croy
enue
ram
▁rom
erç
▁CH
▁vérité
▁genre
ignes
▁extr
▁Gr
▁face
onnes
▁selon
▁fi
▁reti
▁présence
▁vas
agin
▁mariage
empl
▁lim
rance
▁inté
▁exist
▁ordre
▁recher
▁sépar
ible
cour
part
env
ennes
ulté
▁nour
▁pri
où
▁».
▁confi
hab
▁belle
▁LE
nt
▁certaine
▁seconde
ox
▁rue
▁Cor
▁oblig
▁tandis
▁pièces
lissement
Nous
▁projet
ots
AT
▁colon
▁el
▁fût
▁élé
▁commune
ope
,,
▁faisait
▁enne
uelle
▁IV
▁crois
▁certains
▁autor
▁dû
ache
▁frais
çois
▁ali
Au
mission
clam
▁rais
lles
ras
▁gre
rons
▁demi
ilos
fait
▁repos
ennent
▁jugement
cembre
▁tran
▁mots
▁fév
orde
▁os
▁Ne
▁sold
▁plut
▁refus
ifi
olé
▁Quand
aie
▁ém
histoire
▁servir
▁DU
▁année
oine
lez
▁outre
ry
oindre
▁exig
unt
inte
êtres
▁prob
ules
▁maj
▁meill
reuse
▁constitu
ament
▁lib
▁modi
▁seigneur
isse
▁pours
▁termin
▁puisse
▁transport
▁u
acte
▁sep
arch
US
exéc
val
Si
▁propriété
▁marchand
occup
▁Cel
esse
▁politique
amour
▁porter
intérêt
luence
▁Br
▁diffic
▁diverses
mettre
ital
itude
▁créanci
▁points
▁prépar
étaient
▁mul
▁sait
RES
▁sû
▁provin
ice
▁disposition
▁coeur
▁augment
▁Ainsi
one
▁Z
QUE
▁suffis
▁th
alog
ussit
▁actes
dits
yn
ITRE
▁St
lo
▁façon
▁matin
ureur
ative
▁plutôt
▁î
▁pourra
▁civil
▁bâ
▁envoy
▁ministre
▁chambre
cé
▁acte
▁dispar
cad
Etat
enn
inion
▁posses
▁avril
êque
▁Rome
▁passé
rine
▁Son
▁lesquels
▁laisser
▁maintenant
▁sui
▁défin
ît
riv
▁appr
▁avez
▁vain
pond
oiss
honneur
▁faveur
dans
▁qualité
▁inv
élé
lit
cto
▁lumi
rog
▁époque
tré
▁défaut
▁grâce
▁décid
onse
▁procès
af
▁constat
▁hyp
▁faisant
▁paraît
LES
Pour
▁prononc
▁entra
▁minist
itation
▁ru
iner
▁soup
▁malgré
asses
▁libre
▁hér
▁parl
▁animaux
▁action
▁Lors
▁marche
oids
▁expos
administration
▁fé
▁diss
hum
▁favor
▁termes
▁couv
ta
▁rang
▁espèce
ute
auté
▁eaux
▁veu
abilité
ograph
▁tourn
oqu
fice
▁Charles
▁champ
mment
tembre
▁voulu
▁demander
orts
organ
EL
▁nouvelles
▁bi
XX
▁mag
ende
glais
▁jur
▁disp
Art
til
▁enfant
hors
▁Sur
lem
Par
▁sept
▁ordonn
térieure
▁/
yr
▁décret
▁individ
▁dépos
▁principes
▁autour
euf
▁maladie
riers
este
▁surf
▁législ
liquer
erait
istance
io
▁soin
less
année
VI
▁caus
▁noir
ards
itre
▁mém
▁pauvre
▁Roy
▁tre
▁toi
▁croire
ides
der
▁longue
▁soli
▁perd
isé
▁troupes
indi
ju
▁Code
urope
iment
acide
ulaire
▁Quel
▁voie
▁quin
APITRE
▁dispositions
▁end
▁vend
bl
▁cess
▁janvier
ouve
omie
▁dimin
▁ô
usse
asser
▁chi
ision
▁dépens
AS
▁fon
▁succès
Emp
▁détail
▁circonstances
ote
▁Gu
▁contrat
▁passe
▁tenir
ni
▁plupart
▁décembre
emb
nous
▁compl
▁plaisir
▁commenc
oleil
▁huit
.—
▁satis
ccasion
▁bran
▁retour
▁condition
iteur
ologie
enri
▁pur
▁red
cal
ctobre
pect
▁reçu
cident
lever
llem
▁puissance
▁dehors
uf
▁profit
▁exécut
▁base
▁tiers
▁fid
ias
exist
▁immédi
cte
érations
▁effets
▁connaître
issait
atif
▁Qui
▁particulier
mêmes
exc
IRE
▁fonction
▁combat
▁tribunal
ombre
igine
▁parle
▁apparti
▁pensée
▁Après
▁malheure
▁moitié
▁dén
vembre
roi
▁tot
▁manif
▁so
▁tit
atis
▁vic
▁bal
rois
veau
▁sout
cteurs
▁physi
▁chal
autant
▁détr
▁Cl
âteau
▁situation
loit
respond
▁rouge
▁q
appel
▁désir
▁frère
▁route
▁administ
▁ciel
▁volonté
▁sil
▁philos
▁acqu
énom
▁venir
▁cru
▁tromp
êter
ost
▁lut
▁certaines
▁bor
▁const
▁stat
▁tent
▁puisque
roch
▁gal
time
ussitôt
▁recevoir
▁petites
▁fonctions
▁Ex
omin
LI
▁perf
êté
▁troisième
▁intéress
▁auquel
ares
érence
▁anciens
bilité
▁armes
ouverte
och
agnes
moins
▁affaires
iné
talie
▁intérêts
▁Vo
▁froi
▁Mal
▁sem
▁position
dé
▁forte
▁février
▁vill
▁disait
▁pourquoi
▁Seigneur
▁group
▁véritable
eusement
.;
▁mél
▁désign
▁police
orter
chev
▁rare
▁eft
▁bless
iez
sie
▁aband
tér
men
▁prét
▁ray
▁Di
auteur
▁trouvé
▁déch
▁chré
▁pratique
▁bonheur
▁Comme
rale
▁rappel
trém
▁bour
▁prati
▁vent
ublique
▁différentes
▁tex
);
OUR
▁chois
▁département
tellig
▁passage
▁atta
▁dra
autorité
moi
▁vieux
ieuse
▁antéri
rées
pris
ma
usage
▁Rép
êcher
istor
eng
dite
ements
▁Bar
▁fus
ATION
liers
▁aller
▁rent
▁villes
Am
▁pure
atri
▁riches
▁madame
▁citoy
'.
▁lés
étés
avantage
▁rapide
▁compar
▁absolu
inaires
quet
cation
▁nu
▁ajout
éro
▁chevaux
▁septembre
œuvre
▁somm
▁symp
▁nommé
CI
▁répondit
Cette
▁rendu
ôme
▁pièce
▁large
▁Tr
lam
▁transf
objet
AM
▁prétend
▁prit
aissent
▁Conseil
▁fera
▁Enfin
▁idées
avais
▁amis
▁correspond
ts
▁fabri
▁souver
▁remarqu
▁surface
▁Nap
rimer
▁proportion
▁pen
anté
▁établi
▁cinqu
mont
▁mauvais
▁Rom
▁chau
▁poids
▁mit
pl
▁répar
▁dos
▁ouvert
▁vente
ppe
▁double
▁objets
▁preuve
tait
▁forces
▁méc
▁muni
▁vaisse
▁ja
lité
▁propriétaire
▁monsieur
▁hon
avons
▁française
▁lesquelles
▁quoique
lise
ications
▁payer
▁ensemble
▁lumière
▁magn
▁Pierre
▁direction
▁chercher
▁cat
▁veux
ades
▁béné
▁blanc
▁officiers
▁prot
enfant
▁Cependant
▁tempéra
▁circul
▁cath
née
▁Col
andes
urent
▁environ
roy
ov
auc
▁date
▁kil
▁assi
▁fleurs
esté
▁devient
▁quo
otte
ip
▁pouss
▁existe
▁épr
▁François
▁ordres
once
onge
exécution
éris
▁figure
quent
▁ach
▁auprès
▁Av
▁expéri
▁formes
▁laisse
▁bra
▁delà
endue
▁science
▁inj
écri
▁ban
▁soleil
ève
▁hu
▁accep
cule
▁novembre
▁diri
▁pot
▁goût
▁capitaine
ville
▁exerc
oration
▁Comm
▁én
cieux
AG
▁hors
quête
▁super
car
▁juste
▁»,
▁conséquence
illon
▁degré
▁parv
SI
ctes
▁méth
grès
▁secours
▁feuilles
▁derniers
blement
cole
ister
▁propres
ône
▁couleur
othè
▁uns
gés
▁voud
▁div
▁pér
▁lieux
▁maîtres
abs
▁tal
Angleterre
▁langue
▁facile
ué
▁difficile
▁matéri
▁har
▁oubli
ray
guer
▁cad
▁sentiment
▁considérable
fici
CHAPITRE
▁coll
▁phénom
anmoins
▁mètres
erg
▁gloire
onnement
▁fonds
▁Pe
▁impossible
quée
▁écriv
▁résultat
trait
▁répand
▁rôle
OT
▁respect
▁heureux
▁habitants
réci
▁trente
▁Dé
▁adop
▁grav
arrêt
▁mand
érique
▁religion
gén
nements
▁usage
érée
▁Jés
▁signal
▁nombreux
▁partout
écl
▁supérieure
MENT
édi
▁douleur
endra
ouse
▁article
▁règle
▁traité
çons
▁soldats
uns
AB
▁pourtant
utri
▁Comp
▁conj
eubles
bid
RAN
▁causes
▁paroles
▁donna
ultés
sionn
▁peuples
▁conduite
rist
▁appart
uste
chement
▁por
▁auteurs
Mar
▁octobre
▁habitu
▁Français
AC
▁log
ET
ctement
étude
of
▁hauteur
cide
▁Marie
▁centre
▁four
▁prêt
intérieur
anim
▁appelle
▁concl
▁MM
▁généraux
▁terres
bourg
▁Am
église
▁arm
▁militaire
acle
demain
▁légiti
▁volume
▁sauv
▁Su
RÉ
▁pourv
▁recomm
▁suivre
▁venait
▁espèces
▁extra
hér
,.
▁suppos
unes
▁parfois
▁rig
alis
▁longueur
obli
▁Jac
▁instru
▁produits
éric
▁souvenir
▁VI
oh
demment
▁princes
ulf
▁len
▁poin
▁prol
émie
État
DI
▁Ly
▁faud
▁mê
▁fortune
indre
▁lignes
entement
dent
▁tenu
▁Non
▁accompagn
▁premières
▁haute
▁pol
▁sujets
▁renfer
▁is
èce
prise
▁Cet
°.
udence
▁soumis
Europe
▁den
▁satisf
▁chargé
▁municip
ctor
▁aussitôt
▁seraient
▁égard
▁ouvrage
tives
▁ign
▁articles
▁voyage
ouill
▁condamn
▁Henri
▁réserv
▁maisons
▁philosoph
▁curi
▁précip
▁voilà
▁parois
▁lev
▁soi
éral
▁cy
▁président
▁nécessaires
▁ouvrages
orie
▁arrive
duire
ailli
▁susp
▁constitution
▁régu
▁former
tim
▁déput
▁équ
ercice
oré
▁généralement
its
▁traitement
ayant
rs
▁siège
atement
▁permis
▁Prin
▁couvert
.'
▁consac
▁dépend
▁attach
▁pros
▁Min
uff
atoire
▁division
▁distance
ormé
▁bâti
atur
ordonn
▁partir
▁vint
▁unique
effet
ave
▁possession
▁plein
▁cout
▁perp
éli
ira
▁tels
▁réclam
ru
sous
spagne
▁château
▁front
▁modif
adies
........
▁peau
idée
▁pénét
▁noms
▁conséquent
-,
▁faute
▁privil
▁entièrement
▁chaleur
ections
▁parole
çant
▁Val
▁dépl
▁multip
ataire
▁tient
umin
ousse
▁tantôt
▁exam
▁comprend
▁gagn
▁réduit
▁trouvent
ax
tte
▁révolution
âme
▁héri
▁doct
▁nouveaux
▁terrain
▁lendemain
bit
tienne
▁déliv
ates
▁prise
diction
rement
▁Tu
▁êtes
▁idée
ordinaire
acité
▁moindre
tern
IER
▁brû
airement
▁Ah
lés
quement
▁Mes
ôtel
▁résulte
▁intro
▁note
ns
▁inuti
umes
▁conven
▁tableau
▁mob
▁connaissance
reg
aces
avaient
▁âge
▁ladite
▁lait
',
▁entend
èles
existence
▁fallait
▁communes
yl
phe
cel
▁respons
▁chant
gée
▁Chambre
▁durée
▁attribu
▁nobles
▁nécessité
ustrie
avec
▁commen
▁Bl
mier
irm
lerie
▁suffit
▁connaiss
▁instant
▁brill
▁partage
ceau
▁entendre
▁adress
▁rencontre
▁royaume
▁malades
▁Per
▁gé
llemagne
▁ennemis
▁célè
▁bouche
uiss
accord
mar
▁pierre
▁Monsieur
▁demeur
▁vig
▁cop
tiens
▁arriver
her
INE
▁constr
tivité
▁campagne
▁Ad
▁témoign
▁garanti
▁Bour
▁étudi
▁sieur
▁luy
▁abond
▁quar
époque
▁essenti
▁univers
▁LES
▁sacri
▁tar
▁matières
âge
▁rav
▁sert
érir
▁mode
uivre
▁combien
aindre
br
▁territ
▁colle
▁ment
▁établis
▁successi
▁armée
▁régime
Ces
▁lou
▁donnée
ulg
▁XV
▁domin
échal
oici
yle
▁sensi
▁liquide
▁fruits
▁recev
▁test
▁entendu
▁amour
▁commande
▁guère
▁obligé
étant
▁naissance
aide
▁profess
▁développement
ige
▁caval
▁Fl
▁différence
▁admi
▁mise
▁Oui
▁âme
MM
▁solution
oî
▁aim
▁avis
▁Aussi
▁extrême
cha
▁histor
▁progrès
▁compris
uellement
▁constit
▁pont
▁Me
abbé
égard
▁press
odi
▁bure
▁bataille
érés
▁put
uites
▁succession
▁obtenir
▁sortir
▁joie
▁montre
▁Comment
▁maladies
▁mémoire
aye
▁supérieur
ffe
▁masse
▁médic
▁consci
ulation
ANT
ésie
ands
ennemi
▁rapports
▁primi
oléon
▁voulait
▁bons
atiques
▁secret
agement
▁Ou
semblée
▁donnent
▁remplac
▁rê
▁cass
orr
deur
érant
▁mu
▁ledit
▁PAR
▁portant
▁agré
▁résultats
▁posséd
▁allait
▁tirer
cin
bert
iere
ric
▁Sal
▁Soci
cture
▁renv
çait
▁commencement
▁éclat
▁Jésus
▁entraî
▁ang
▁puisqu
ctoire
▁Gre
▁nerv
▁nationale
▁perdu
▁cli
▁nord
lent
▁démont
▁cens
▁reconnaître
▁délai
▁absolument
▁descend
▁confiance
tifi
▁immédiatement
ores
chi
▁mérite
▁appro
▁assur
ries
▁douce
▁consul
▁compagnie
▁amb
▁foule
OS
▁dépôt
▁déclaration
▁prote
▁Cal
▁ferme
isc
sements
▁facilement
▁pleine
oche
▁silence
▁bruit
osph
usion
▁derrière
▁lab
oo
▁secr
▁chefs
▁classe
▁gouvern
▁ram
▁texte
▁ordinairement
▁séc
eront
▁trouvait
▁syn
tine
▁vég
▁région
ôp
▁cab
▁règlement
▁produire
naire
▁Elles
cur
udes
▁atteint
empereur
▁méd
▁...
▁Ses
utes
PH
eus
▁étrangers
▁utile
ett
▁pun
▁élè
▁norm
▁sép
othèque
▁Rou
▁cents
▁envers
▁commission
▁terme
influence
▁morale
▁complète
▁enfans
▁Tous
romp
▁signif
▁courant
▁judi
▁tum
êche
▁courage
aude
tière
yg
▁triom
▁chiff
▁génie
▁règles
Une
origine
andre
▁saurait
▁regret
▁Beau
▁calcul
▁départ
rin
verb
▁Ber
▁Vi
euve
▁recueil
▁Che
▁max
per
▁contient
▁services
▁mach
▁température
▁chacune
ART
▁analog
▁millions
▁mén
import
▁juger
osse
▁associ
rag
▁santé
dessous
▁perte
▁gaz
▁apport
épend
▁côt
▁illus
▁retourn
▁début
anne
▁Cap
▁complètement
yd
âch
▁autrement
ège
▁défend
▁période
Elle
▁Plus
▁w
▁quart
fices
▁Quant
▁mourut
▁cesse
▁crime
▁ministère
conque
▁page
▁surv
iver
▁entrer
ls
ae
éb
▁amen
▁Voyez
▁content
▁dig
▁évé
ilippe
▁végét
uisse
usement
ieuses
▁différents
▁nombreuses
▁suit
.).
▁Paul
▁dress
▁douze
gyp
▁remarquer
cre
cer
accomp
obe
▁tem
▁fu
rêt
▁typ
oud
▁parlé
▁demeure
▁Pré
▁attend
▁produis
éle
▁connu
▁tribunaux
olique
▁actions
ouch
▁sulf
IÈ
▁ner
▁garn
▁mesures
▁perdre
▁court
▁cité
▁éléments
▁soins
IST
▁rét
▁gram
▁doigt
ocra
enez
▁vivre
cy
▁Art
uments
▁tort
trémité
CTION
▁accus
anité
▁dessus
éf
▁danger
▁dir
▁néanmoins
▁irré
▁médecin
▁Gen
▁entier
▁davantage
ogne
sieurs
▁Lorsque
▁parfaitement
ini
ani
▁orig
▁cult
▁civile
▁palais
▁défense
▁cant
gation
tenant
▁éloign
▁noble
▁Sainte
▁portée
imm
▁endroit
▁principal
▁caractères
▁ais
▁forêt
▁pauvres
▁laissé
▁dil
▁lè
▁reine
▁rétab
▁crimin
▁Tur
▁naturelle
ton
▁quinze
étoit
▁créanciers
▁faible
▁détails
▁commiss
▁erreur
▁côtés
rup
▁peint
ribution
▁particulièrement
▁exclus
▁Maj
outes
▁Notre
▁conserver
ologique
éti
▁papier
gique
OI
ha
Italie
▁Gouver
▁patrie
mit
▁particuliers
▁mol
▁filles
▁alli
▁exac
▁Pal
▁militaires
ouvent
instruction
▁fun
▁voisin
érité
▁règne
▁Napoléon
ten
▁riche
▁trouva
uir
avez
▁échapp
▁viennent
▁ancien
istrat
▁Bon
▁coups
▁morte
▁voici
▁village
▁administra
▁provis
▁chemins
étais
▁questions
mise
oppos
▁celte
▁judici
▁faibles
éter
▁fati
▁anglais
▁mouvements
eue
▁opérations
odes
▁domm
ôtre
pour
ussent
onie
▁air
▁Toute
▁élevé
▁efforts
érance
▁contribu
uteur
▁allem
▁fiè
▁Port
▁découv
▁population
arg
▁porté
▁Sans
œurs
▁Lyon
oiselle
vén
ymp
▁publics
▁Bel
▁vaisseaux
▁préj
▁manifest
▁cach
expéri
ONS
jour
ellent
▁observations
demn
opinion
plus
▁arbres
▁admis
▁digne
▁ajoute
étaire
ormes
oncer
riture
▁artis
▁pareil
isp
orum
▁sainte
eulement
▁doux
▁Ville
mid
telligence
▁comprendre
olue
ié
utation
▁vap
▁distingu
ricul
hyp
▁Ab
▁honn
▁ur
▁choix
▁discours
rible
▁précis
▁demanda
;.
oue
▁tranqu
agé
▁appelé
ichel
▁juges
▁formé
▁profes
▁bre
▁plantes
▁République
hyd
▁eur
▁auront
▁suivi
▁ouvriers
▁tems
▁pâ
▁montagnes
tint
▁appartient
▁étroit
▁méthode
▁suivante
▁renf
▁vall
▁forment
▁faux
qués
issance
▁malheureux
▁réserve
ouvé
▁province
assembl
uves
▁supr
▁organes
▁firent
▁médi
▁délic
▁délib
igneurs
aution
▁telles
-.
position
▁pes
▁salut
▁volont
anche
verse
atives
itié
▁Grand
▁simples
▁fes
estre
emple
▁religieux
onte
▁toutefois
empire
orce
As
ym
▁quant
assin
▁croit
ault
▁duquel
entrée
▁dudit
▁placé
oureux
ali
▁ut
▁étoient
▁Ge
Empereur
▁Est
▁beaux
▁docteur
▁principaux
IG
▁Bourg
▁belles
UX
▁céd
▁Puis
▁autrefois
lément
▁vive
osité
▁meur
olie
▁sauf
▁prisonn
coles
▁arrière
ômes
▁prog
▁Lé
ames
ètes
▁Fer
▁mourir
eries
▁Cont
ceaux
▁fréqu
exercice
▁conscience
cepti
gement
entend
▁semblable
hommes
ibles
ita
▁to
son
geois
oureuse
areil
idité
▁contemp
▁singu
▁moyenne
▁impéri
▁infin
▁dernières
▁renouv
▁venu
oriz
▁seuls
▁Eh
▁Alors
▁entour
▁membre
▁partis
èche
avance
tex
▁VII
▁arrêté
▁avoient
avenir
▁juris
inet
assé
▁sein
▁canal
▁inférieure
▁simplement
▁plai
euvre
emploi
▁rester
▁cinquante
édition
▁vais
mil
▁perfection
idence
▁présenter
œil
▁pourront
teur
▁pouvaient
ius
▁acquis
▁auraient
▁Sch
▁vont
ardinal
▁COM
▁Société
▁commandant
▁débiteur
▁Jus
▁Cass
▁tiss
ranger
nel
▁souverain
▁créancier
▁Parlement
ral
▁rois
▁discip
tisme
▁domes
▁san
▁promp
▁montrer
intes
▁série
▁incon
▁dange
donn
▁cre
Eglise
rav
Espagne
ument
vez
▁vouloir
▁quarante
▁portion
▁capital
▁exception
arm
ols
▁procédé
irurg
▁célèbre
▁centim
uter
érable
▁féc
▁auteur
▁conseils
Des
▁cle
▁chlor
▁ressour
▁voulut
▁lac
bus
▁deuxième
▁affaire
lière
▁trés
▁auxquels
▁œu
naires
▁froid
▁section
▁journée
▁protest
▁théâtre
▁doctrine
▁sympt
▁qualités
reté
cn
âche
aurait
▁..
itaire
Es
▁Ma
▁hor
arn
▁larmes
▁confond
▁dépenses
▁notamment
▁num
▁écr
rection
▁recouv
▁substance
▁titres
▁gui
▁pense
▁deg
occasion
▁dame
▁devaient
▁manque
▁Rh
▁source
▁fleur
▁retraite
▁employés
▁dissi
▁doc
▁marchandises
▁magistrat
▁conç
▁propriétés
▁rejet
▁Oh
▁faculté
▁XX
▁has
quit
orer
▁crist
▁sortes
antin
▁chapitre
▁réd
▁devenir
▁directement
geur
▁conver
▁production
▁construction
application
▁imagin
▁diam
édie
▁prép
;'
ctu
tific
▁employé
▁carbon
veillance
arc
pir
▁salle
▁devint
appro
dis
▁inn
▁race
hi
crits
ignement
▁reprit
ere
riques
▁bonnes
▁citoyens
▁bords
▁niveau
▁Mor
▁om
▁beauté
▁Madame
▁fen
telle
▁rense
▁cellu
!...
▁rappro
▁phénomènes
observ
otes
▁défendre
rable
inté
▁ordinaires
▁Deux
ormément
do
DES
▁journal
eût
till
▁visage
▁Cas
offici
▁relev
MA
▁juri
▁frères
âmes
▁opinion
aller
sur
ives
▁maréchal
▁appréci
appar
rimé
▁Rob
▁crainte
▁communi
ars
▁ay
▁pain
enues
Que
Fig
aly
ensible
▁recours
▁particulière
▁Pas
.),
▁discussi
criptions
▁Pap
▁écon
▁exploit
alli
▁réponse
▁époux
tiennent
▁tomber
arité
▁siècles
▁sages
▁Philippe
▁humaine
arie
▁chevalier
rances
▁établir
▁branches
oué
DU
tements
▁traits
▁grave
▁peines
ulé
▁entrepr
orge
Ad
oe
▁Cela
anisme
▁arrivé
▁bataill
▁difficultés
▁territoire
▁aigu
▁neuf
▁royale
ase
▁fournir
fig
tesse
▁Man
▁lire
▁marquis
▁taille
▁empr
▁applic
▁décision
▁tab
▁signe
▁remont
ONT
▁EN
▁éner
din
▁sév
▁légère
▁découvert
▁Nord
▁réflex
▁charges
ventions
acement
▁mou
na
aintes
▁MA
ecture
▁nomme
pes
bi
▁Droit
▁ris
▁concerne
eft
▁besoins
▁pla
peu
▁spéciale
▁vite
▁prodi
▁XI
▁quarti
▁couronne
eul
▁Thé
armes
▁Guill
▁collè
▁Chap
aves
▁compter
▁Lond
ribuer
▁négoci
uler
▁ï
▁ç
anes
▁répondre
▁jaune
▁consiste
ancien
▁Vers
rions
▁continue
▁pul
▁ancienne
expérience
cier
▁Mme
▁patri
▁voyant
fication
nelle
tins
érie
▁essay
▁jugé
▁mauvaise
▁préfet
▁grandeur
▁communauté
oyez
dict
angle
▁adj
▁parlement
▁résistance
▁Bi
▁nomm
tifier
▁profonde
▁Es
▁malheur
▁éviter
▁fie
ocation
▁combin
▁occasion
rande
▁reconnu
▁définiti
▁domicile
▁parcour
uie
▁composé
mat
léch
▁quelqu
▁gout
▁social
Ex
itée
▁avanc
fier
▁sommet
▁navire
▁penser
▁XIV
▁pa
ionn
▁sentiments
▁composition
MP
▁clair
▁Cr
▁déd
▁contract
▁enc
▁Del
UN
▁culture
sier
oixante
otion
▁forc
▁tombe
▁institu
olt
anique
▁capitale
pro
▁mission
Lors
▁fol
culaire
▁Mau
umé
ene
▁anti
▁Voilà
▁parents
▁cherch
▁respec
▁consomm
▁obtenu
▁VIII
ILLE
omac
ulle
▁rapidement
quées
▁pape
▁barb
▁véri
▁citer
▁sud
▁brig
▁semblait
êch
ûte
▁lé
cules
ina
▁étendue
▁ro
▁degrés
gypte
▁Celui
ARD
quant
assent
▁inconn
▁semblables
TÉ
▁indust
▁remplir
ive
aissait
▁arch
▁enlev
▁excep
▁argent
▁Majesté
industrie
licité
▁vag
▁indig
▁contest
▁neu
▁domaine
▁fièvre
angé
▁lutte
▁blanche
▁remarque
▁esprits
écria
let
▁chasse
▁réalité
▁Fr
,'
▁convient
▁ailleurs
▁avantages
▁longues
espoir
▁conclus
Acad
adis
ertes
ressions
▁cot
▁ul
▁lin
▁Rel
▁peur
▁devenu
orb
héri
▁pouvant
▁recommand
▁réal
cidents
dement
▁tor
oz
▁préjudi
▁quelconque
▁Sc
ernes
▁motifs
▁rivière
▁vén
▁aperç
▁cler
▁lis
▁Jacques
▁proté
▁pression
tem
oquer
▁fixe
▁hos
▁héritiers
▁chron
fort
cool
▁suscepti
ara
arre
VE
atte
▁géné
▁instr
ormation
llerie
▁couche
▁compt
rime
▁maire
▁tellement
▁divin
▁formation
▁convain
▁quitter
▁allons
avis
▁bel
▁bureau
▁antérieure
▁fans
Allemagne
▁Mém
▁déterminer
▁Quoi
▁difficulté
émi
▁Voici
▁offre
▁légitime
rou
▁raisons
ége
isée
▁dot
videmment
▁recherches
ires
▁dign
ourir
ties
▁marché
ith
▁cu
onci
▁procureur
▁Gouvernement
▁dents
erai
▁scène
▁lieutenant
▁plant
▁jusque
▁Can
Après
tenir
▁leg
▁douleurs
GE
▁her
▁voyag
▁far
▁style
Du
texte
▁possède
▁jeunesse
;&
ulte
école
ium
èdent
▁compét
▁regarde
jus
atrième
léans
▁perpét
▁pourraient
▁rempli
reau
▁tissu
archie
▁chirurg
èmes
▁calme
▁voies
▁soixante
rot
▁fat
▁proposition
▁chaî
▁théorie
▁tuber
anterie
▁meilleur
▁mention
▁venons
dites
▁ves
AI
▁Prés
▁tendre
▁constitue
ateau
▁dites
;:
Quand
▁rente
idi
ormer
oliques
▁confir
évolution
TRE
▁Lu
▁rej
▁jardin
ierres
enaient
▁minutes
leur
Se
▁fau
▁Romains
▁professeur
Vous
▁Ren
▁repouss
▁graves
gie
▁soul
▁aient
▁triste
hon
ispens
▁Angleterre
-'
fié
établissement
aime
▁Quelques
aband
▁provinces
NÉ
ano
▁portent
auss
▁individus
▁Etats
▁sûr
arri
▁!...
issements
▁poit
▁proch
érus
▁IX
ef
▁verre
▁Proc
ublic
▁grec
▁centimètres
iction
▁bleu
▁reconnaissance
▁précédent
▁commandement
▁hasard
▁agents
▁affect
ck
attend
ination
▁Bou
▁ecc
oseph
énat
▁obé
▁seroit
▁directeur
▁reçoit
▁Toul
▁exter
▁faudrait
▁continuer
▁étern
ison
▁pouvons
▁représente
▁Arch
▁égal
tième
▁devra
▁principales
Av
▁présentent
▁témoins
opération
▁étranger
▁auxquelles
IC
arque
▁Seine
▁cultiv
▁cercle
▁ty
▁importance
▁navig
▁rendit
cts
▁concours
ow
▁empêcher
▁mélange
▁obst
▁murs
▁exactement
▁lig
érées
▁vaste
▁célé
assur
▁viens
▁atti
▁portes
frique
oudre
▁canon
▁faisaient
▁Pendant
▁prouver
▁exige
▁Sav
▁songe
oure
▁principalement
ssent
▁chass
▁inutile
▁inconvén
▁naturellement
▁Depuis
▁spir
▁revenir
del
▁remarquable
imum
▁spect
ensemble
▁Dès
▁mun
▁disant
ak
dres
atta
▁cord
▁absolue
▁Londres
lant
élas
▁prescrit
▁ps
iseaux
▁ignor
ographie
▁AN
dication
OG
aus
tivement
▁influence
ilier
▁pag
estes
avoit
fique
▁donnant
▁autorité
▁introduit
▁nourriture
▁limites
▁politiques
aph
▁côte
▁SE
Ab
élev
accus
▁groupe
écu
QUES
▁important
▁médecine
▁régiment
▁personnel
▁honneur
▁attention
▁quoiqu
▁Anglais
▁dout
▁langage
▁abus
▁dedans
▁fussent
▁propriétaires
▁ôc
▁desse
▁Ver
▁égale
▁successivement
▁inst
nant
ocat
▁trône
▁soutenir
▁placer
▁honor
onnée
;,
CT
▁durant
Académie
jou
▁vieille
▁armées
tiss
▁retirer
ancienne
lamm
▁garder
chée
▁poudre
▁prolong
▁Mé
▁nulle
▁données
don
▁gent
▁ajouter
▁MAR
▁modes
▁magnifi
▁romp
▁Off
▁pav
▁reb
▁batt
utriche
▁flam
▁spécial
▁substances
ros
▁Leur
▁condamné
▁respi
▁fournit
▁interne
riculture
po
▁renferme
▁parall
▁Trait
▁consent
▁couleurs
▁circonstance
verbal
▁Gén
▁motif
▁pierres
atifs
itent
▁stip
▁changement
ices
▁Prince
▁commerci
▁vraiment
isés
▁places
▁assis
▁vieill
▁Trib
▁ressort
▁convention
▁deb
▁Sous
▁états
oirs
▁indispens
▁dévou
paravant
▁vendre
arte
▁royal
▁cardinal
▁conformément
▁bourgeois
▁embr
ordonnance
▁inqui
--
▁traî
▁dois
▁pourvu
aisons
ignements
▁fixé
▁fruit
▁observer
▁cam
▁visite
▁Journ
▁fortement
▁gouverneur
itt
pas
▁opération
▁cur
▁familles
UL
▁régn
île
▁troubles
▁audit
▁pointe
▁sucre
aigne
▁dirige
▁députés
AIN
ulaires
inal
lée
attention
▁grammes
▁distinction
▁certainement
opé
▁paral
rations
aig
▁passant
~~
▁devoirs
organisation
▁appliqu
▁réunion
lion
▁ça
impos
itesse
ize
▁remis
▁envoyé
▁of
▁séjour
▁économ
▁drap
aim
toine
▁Guillaume
▁proprement
▁oui
▁sciences
ël
hib
ierge
autor
▁Champ
▁Pourquoi
eter
▁devons
▁contact
▁donnait
▁dent
▁changer
ussie
▁serment
REM
ressi
entions
▁parut
étendue
▁éclair
quemment
▁success
huit
▁requ
▁majorité
▁colonne
▁charm
▁délit
▁curé
▁ministres
▁nations
▁récomp
enses
espèce
▁musique
▁hypoth
ana
oubli
rid
jec
nie
▁paru
▁coutume
ider
▁classes
▁eau
▁humain
▁assurer
▁États
roph
devant
▁muscles
▁attendre
▁ressembl
▁AR
▁conduire
▁quatrième
sibilité
▁Ser
▁concern
▁communication
cien
uts
élève
▁individu
demnité
▁franch
▁jal
vé
moni
▁considérer
▁quels
to
▁vivant
▁membran
iron
iz
▁vaut
▁relativement
ivement
▁meubles
aies
ibus
▁bron
▁dite
▁morts
hor
▁fib
▁Voir
ôpital
fé
▁Bret
extrémité
▁pein
importance
▁prison
▁due
▁croix
▁pé
▁ressources
Ou
▁responsabilité
▁légèrement
ordeaux
hu
▁feront
ouverture
gues
▁ramen
urs
ouff
absence
unité
▁travaill
▁nécessairement
▁IN
▁vapeur
▁Conf
▁poste
aissez
▁largeur
▁nat
▁vertus
▁évidemment
▁vice
▁âmes
▁consol
▁envelopp
Ainsi
vue
orges
▁sociétés
UE
itant
▁aveu
▁pareille
oise
▁aime
lièrement
▁victoire
▁AU
▁châ
lésias
▁chaud
▁importante
▁principale
rient
▁grains
▁brus
anges
▁pages
Re
▁reçut
▁cheveux
▁Mil
▁vivement
▁persu
°,
▁testament
pre
▁histoire
▁mic
▁voulez
▁Lorsqu
▁capable
CHE
▁succéd
▁immense
▁rarement
ambres
usses
▁Ceux
▁spiritu
▁environs
▁marine
erons
roient
▁Aug
▁traite
▁figures
▁moul
prudence
▁craindre
▁symptômes
accep
inv
▁mas
seulement
▁nette
▁poiss
▁mys
▁paiement
▁relations
▁mâ
▁pati
▁poitrine
▁aver
vision
▁caractéris
olte
▁type
AUX
▁maintenir
▁coupe
bien
itif
▁cuivre
▁fant
ST
▁vel
▁litté
▁voyez
▁édition
▁protection
▁philosophie
mbler
▁dî
huile
▁publiques
▁précieux
▁Is
▁veille
▁déclaré
cinq
▁marcher
▁culte
ropri
▁entr
▁tenus
ramme
▁terrible
▁décis
▁chargés
▁aliment
▁industri
gra
ouer
▁Votre
▁récit
▁Russie
URE
▁As
▁nov
▁voyait
▁cous
▁alla
▁Toutes
▁discussion
▁passion
▁fous
▁revenu
OB
onomie
▁conduis
▁monn
Sur
▁Loi
▁voiture
OIS
nés
ormais
▁poursuiv
ata
▁contenant
▁représentant
▁lèvres
▁XIII
▁montant
▁édi
▁passa
▁mut
▁générales
igné
▁mens
▁Font
▁chr
▁admet
▁chair
PAR
oïde
▁cherche
▁rapporte
▁anciennes
olas
pie
âtres
▁mam
▁Bern
Empire
examen
FF
▁chère
▁fortes
cieuse
▁fum
▁rues
Assemblée
▁crédit
expression
ura
ombe
▁rayons
▁grosses
▁manus
▁seigneurs
dien
assemblée
aule
ERS
artillerie
▁plante
▁distinguer
onnés
▁vulg
▁spécialement
no
▁kilom
▁publié
▁connaît
uffis
▁anne
▁rares
▁disent
▁fête
▁ore
arriv
▁prêtres
obligation
▁demandé
étique
▁cris
appr
▁Bien
▁établissements
▁cellules
▁déclare
▁élèves
▁prétexte
▁étend
▁réussi
ancer
▁ibid
▁auroit
monie
▁remb
▁scr
▁suivantes
▁prêtre
▁avantage
▁ital
TH
érat
▁Lau
agent
▁lieues
▁expériences
▁garantie
Autriche
▁arrivée
▁portrait
▁Avec
▁prises
▁coupable
rich
tée
Enfin
▁sage
▁kilog
issaient
▁isol
Me
fr
▁études
▁montagne
▁joint
▁métal
▁combattre
PE
▁bail
▁Be
▁cylin
▁sinon
aisseur
▁scul
▁savait
▁procédure
ancel
▁épous
▁quelles
▁cavalerie
▁chaux
▁exemples
duc
liqué
▁talent
▁citoyen
Paris
assurer
ays
▁Rég
ension
▁invent
▁sentir
▁nullité
▁escl
▁voyons
humanité
uration
▁nerveux
▁laissant
▁gris
▁favorable
▁extraordinaire
▁longs
▁ra
▁servent
xes
ITE
▁soign
▁pût
▁dessin
▁parfaite
▁RE
▁dure
ca
élég
▁tis
espace
CES
▁Liv
▁champs
▁formée
▁pan
''
▁orient
uil
▁prenant
▁XII
▁lecture
▁prim
▁Arrêt
▁Mus
▁officier
▁ie
▁conséquences
da
rières
▁deniers
▁inférieur
▁baron
▁passions
ouvrage
▁trésor
▁promen
▁ov
▁payement
arras
ull
exploit
oître
▁régions
ës
▁fleuve
▁auparavant
hier
alcool
exemple
▁mépris
▁accident
▁existence
quatre
▁préal
▁pil
Christ
▁App
▁conces
appui
eurer
▁délég
▁trouble
▁gê
▁judiciaire
lat
▁Cath
▁ennemi
▁sinc
▁ingén
erts
inn
▁Peu
▁Gal
mique
▁finances
▁cér
▁concur
▁marque
▁gardes
registre
▁renouvel
▁constamment
▁rendus
ALE
oît
Tout
pent
▁Nouv
▁tenait
▁sensible
▁réellement
dev
▁Déc
réd
Jean
endrait
▁particulières
▁pere
euble
▁menti
▁donation
mide
▁Bordeaux
imagin
▁mariti
▁récip
établir
oncé
▁latin
▁complet
▁pon
las
▁det
▁midi
▁presse
▁Nic
▁dif
▁sortie
▁surveillance
▁constater
ator
▁agir
▁retard
▁séance
▁indépend
cessi
▁regarder
cus
▁Duc
▁Traité
▁critique
▁Const
▁occas
go
▁veulent
▁zèle
▁calc
AIS
hiver
ensité
▁oc
▁solid
▁violence
▁vif
▁flot
▁charité
agré
éduc
▁fron
▁terrains
▁prouve
cis
▁conqu
▁ot
▁étrangères
▁destinée
affaire
▁saisie
▁solenn
rès
▁animal
▁arriva
▁encour
quait
mm
▁mœurs
tés
riez
▁fixer
▁Esp
▁pouvoirs
▁Holl
▁noblesse
▁jeter
ych
▁procurer
▁XVI
▁Alex
▁Christ
▁rach
▁circulation
Orléans
onseigneur
▁horiz
cop
▁côtes
▁Lettres
OC
▁unes
▁sûreté
▁puissent
iteurs
▁manger
▁interpr
▁réunis
▁profession
▁Italie
▁branche
IQUE
▁établie
Is
▁rappeler
▁rive
▁cassation
ologne
Église
▁plomb
▁prévenir
bliothèque
orp
▁Pont
▁formule
▁prescription
esses
▁œuvre
▁sab
▁Co
▁remettre
Est
▁cla
▁paraissent
lui
▁parlant
▁négli
▁écoles
▁appartenant
▁ef
duis
▁ecclésias
▁troupe
▁législation
clin
éph
▁probablement
tig
▁poë
▁connue
▁placés
istres
▁racont
Amérique
▁racines
▁triomph
▁heureuse
▁parfait
cure
▁bén
▁arrêter
êques
aissant
▁médecins
animal
▁décidé
▁interv
ainement
▁sollic
▁portait
▁conseill
▁prennent
▁bonté
étranger
▁Compagn
▁convers
observation
acles
▁consentement
UM
adress
▁physique
mosph
itage
▁Cong
▁vir
▁prie
fle
▁chien
▁exécution
▁dat
▁permettre
▁crimes
▁préjudice
AND
empêcher
▁origine
itaires
▁chiffre
▁précisément
▁lux
▁pel
▁suppli
bas
alyse
▁postérieure
▁déchar
▁tenant
▁élevée
▁appuy
▁spectacle
▁amp
térieures
▁Ins
expos
▁Pers
▁actuellement
▁veuve
dou
▁arrond
ANS
▁création
miers
▁appris
▁moral
▁Relig
▁Histoire
▁fre
▁excès
▁oiseaux
ettez
estomac
▁cerveau
▁événements
mine
cence
▁renvers
▁Aux
▁Dem
▁arra
▁tire
▁craign
▁Gui
rammes
▁préoccup
▁résolution
îmes
))
▁tap
▁tir
▁bu
▁revient
▁relative
▁tradition
▁dommages
ranch
glises
▁catég
▁gré
▁advers
▁secrétaire
▁proclam
▁voisins
tification
▁savez
▁laissa
aules
▁travailler
▁CON
Comme
ories
▁livrer
endroit
▁affection
▁prononcer
▁considérables
▁hyd
▁déterminé
tation
▁tableaux
▁del
▁colonies
▁Dom
▁vertic
arrêter
acé
fre
▁Pi
▁fonde
▁accidents
▁distingue
▁Bas
▁céré
raction
▁nouvel
▁signes
▁môme
▁haine
▁libres
▁arts
▁toucher
Cependant
▁reli
▁Quelle
▁....
▁désormais
épar
▁Bal
aisses
▁suivants
▁manquer
▁application
▁moderne
Com
▁cuis
▁parc
▁particip
▁excell
▁devrait
▁noire
▁dignité
illets
bation
▁incomp
▁chapelle
▁renseignements
mo
▁Rec
gle
rac
*.
get
attach
AIRE
ribue
▁sœur
▁colonel
▁moin
LÉ
elon
ueill
▁interromp
ués
▁Là
dion
assad
ouest
tiste
▁doigts
▁rappelle
range
appelle
▁preuves
▁agréable
▁vot
▁dimen
▁immob
augment
▁semblent
éron
orique
chevêque
deux
▁murm
▁Grecs
▁revêt
IX
piration
▁esté
▁cérém
▁relatives
▁emploi
▁concernant
▁ferait
▁extrait
▁notaire
▁Pre
▁jambes
angers
▁redout
▁vallée
▁décès
▁merveill
▁exclusivement
times
▁caisse
▁radi
▁queue
▁the
▁séd
▁écrits
▁divisions
▁dr
▁forêts
▁modèle
▁quartier
Fran
▁privé
▁PRO
▁tôt
ke
rimée
ruption
▁décom
univers
éraux
▁lever
▁reprendre
endi
qua
▁colère
▁uniquement
▁vraie
▁solu
▁recherche
inions
▁nerfs
eth
OIRE
▁combatt
▁ouverte
▁touch
▁Ann
▁Dur
▁assembl
har
urité
▁liste
▁élect
Quel
▁Mars
raî
▁dette
ple
orée
▁traités
▁Ven
ouvre
▁glor
▁regards
intelligence
▁roul
▁hém
▁diges
▁fabrication
▁Li
anie
oeuvre
▁littér
▁temple
risti
URS
▁lesdits
▁purement
▁).
rante
▁conservé
▁poul
▁employer
ésar
▁QU
▁coin
▁Jeanne
▁couches
▁bénéfice
▁obligations
voy
▁meurt
Afrique
▁conseiller
▁vigueur
▁intérieure
hés
user
▁clergé
▁sauver
onnant
▁tarif
▁my
intro
▁angl
▁soud
▁Po
▁muqu
▁facil
autions
DÉ
yre
▁détruire
roid
▁prosp
astre
titut
▁foss
▁régl
▁composée
▁procédés
▁tube
lève
▁corp
▁Prusse
▁héros
▁ordonné
▁suppose
▁assign
▁FRAN
▁poign
yer
▁paraître
vie
ITÉ
baye
▁naître
aum
▁payé
tituer
▁religieuse
▁engage
irer
aucun
êle
▁demain
▁Rien
▁Père
▁littérat
▁sph
ataires
▁hom
associ
▁jouir
IR
raire
▁traiter
▁Mad
▁fab
autés
▁maux
▁effect
▁repar
vet
▁mira
itations
gueil
▁basse
▁rentes
quisition
alent
▁Robert
▁revenus
▁Aut
▁utiles
ophe
▁suprême
agriculture
alors
aurais
▁républic
reurs
▁fécond
▁découverte
▁extrêmement
tile
▁projets
▁souffrir
quité
▁Toutefois
oeil
yde
▁douc
▁diver
▁sympath
long
▁achev
ané
▁jouer
▁diamètre
▁compose
éducation
aste
▁larges
▁soldat
▁dépense
▁conservation
▁Lég
▁greff
▁Bourgogne
uée
ologiques
▁immeubles
dor
▁ger
▁phras
▁grosse
▁caution
▁amende
agu
aris
▁saisir
exception
▁emport
▁tristes
ulée
▁édit
chesse
oques
▁trah
iennes
▁écrire
▁Messieurs
▁bassin
▁problè
▁dur
▁Imp
▁gren
▁pensées
▁sociale
tez
▁Dou
▁mons
entendre
oupe
▁convenable
▁éb
▁vues
héritier
▁Vill
admi
▁vide
échapp
▁remise
▁réputation
▁dict
onciation
inture
▁Martin
▁guéris
▁externe
▁chrétiens
▁vac
anément
▁sim
▁œuvres
méli
▁gagner
omes
▁commencé
▁deviennent
CON
▁importe
▁fidèle
▁soie
officier
▁fondé
trémités
▁république
▁Flor
▁chute
▁dirig
▁puissant
▁considéré
union
▁Rouen
▁jurisprudence
crire
▁estoit
berg
▁comprom
▁sagesse
▁è
évêque
tissement
fais
▁procéder
▁modernes
▁Sp
Ils
prés
EU
obé
▁Vienne
aif
▁fasse
▁savant
Quant
▁dieux
▁fréquemment
▁Norm
▁religieuses
▁suffisamment
▁Michel
ueux
▁comptes
▁élu
▁qual
▁repas
▁considération
▁tué
irait
▁tronc
▁ferment
line
▁Ni
▁it
▁exercer
▁vitesse
bis
▁Pat
▁reconnaît
▁compagnies
▁chim
▁curieux
▁fraî
▁attendu
ecte
Louis
▁rendent
▁princesse
endants
▁éman
intention
▁profondeur
existe
ductions
▁tubercul
lan
▁faill
▁colonnes
avre
▁fine
térieurs
▁pouvoit
cile
▁Commission
■■
abond
▁extrémités
▁élément
▁Révolution
▁rire
▁incap
▁léger
ciens
▁rédi
▁venge
▁située
▁consist
▁directe
▁rentrer
▁déclarer
OY
▁DÉ
amais
▁sculpt
quin
▁Pape
▁remerci
arme
▁fuite
▁séparation
▁indiff
▁navires
Ins
▁lent
▁plaine
ouche
▁persuad
▁personnages
crite
ostic
▁foit
▁êtres
▁ajouta
▁traduit
▁modifications
▁Ca
▁méri
▁arbit
▁vieilles
▁poète
▁bataillon
▁faiblesse
▁monter
ouc
▁Joseph
▁donnés
▁bud
▁devenue
ôts
uels
▁cos
▁acide
▁déro
▁phénomène
▁solide
▁Ministre
▁eurent
▁tur
gées
hous
▁actuel
▁indispensable
▁sommeil
▁def
▁cabinet
AGE
▁noy
▁provenant
uant
▁renferm
▁surn
rence
▁placée
Dame
▁chan
umer
hôtel
▁précédente
▁dut
▁îles
▁aspect
▁machine
▁aisément
agée
▁mines
▁Léon
▁notes
seur
▁épar
▁nôtre
rad
▁exag
▁nommer
▁témoin
▁Don
activité
▁chrétien
▁finit
▁Où
▁description
lieu
▁bienfait
▁bâtiments
▁prisonniers
▁nostre
▁Cout
▁mout
▁vaisseau
▁dangereux
▁forcé
▁fondée
▁éprouv
▁bis
dré
▁genoux
▁montré
▁dettes
TIC
▁compli
▁conclure
▁préférence
**
▁triomphe
▁lésions
▁catholique
habitude
ly
endic
atoires
▁resta
▁sorti
▁appartiennent
rate
Saint
▁batter
▁blancs
▁canton
▁perman
▁tissus
▁préparer
▁commissaires
▁guerres
▁fini
▁occupe
ven
▁Bert
▁débris
dieu
cevoir
▁établissement
ôtres
▁Emp
▁copie
olutions
▁Sy
▁loy
sière
diens
▁classi
▁meilleure
▁provisoire
▁Cler
▁totale
old
▁Tour
ilé
uivant
euil
▁Gren
▁gang
▁pleur
▁ordonnance
▁rayon
".
▁Méd
▁restait
▁publication
aperç
ardins
ontiers
",
▁ros
▁sut
▁sérieux
▁abord
▁réunir
▁support
antit
olle
▁dioc
▁debout
▁occupé
▁Président
▁pitié
ouille
ony
▁be
▁actuelle
▁intelle
▁voisinage
▁bro
nation
etz
▁Ag
▁vins
▁divine
▁réelle
cides
~.
▁patron
▁détach
▁représentation
▁paroisse
▁journaux
rables
▁misère
▁dessein
▁expliquer
▁mena
ôte
▁dissolution
▁pin
▁subli
auph
aucune
han
rég
enis
▁ridi
oivent
issante
▁admettre
▁avantag
▁constituent
▁éte
▁surpr
▁courir
▁contempor
neu
rétion
▁Ap
▁unif
▁effic
omét
▁brun
▁ration
▁évêque
ÈRE
▁rot
▁rapporter
▁bât
▁nez
érale
▁situé
VII
▁pren
▁commença
▁Chaque
▁rapproch
▁formant
▁ard
▁dipl
▁foyer
housias
▁renvoy
▁intellig
itoy
▁semaines
▁récipro
▁Ier
▁rame
▁emprunt
▁peinture
log
▁ceci
▁romain
▁endroits
?...
tières
uelles
▁parait
rc
▁chag
hém
▁omb
inois
▁agri
▁eussent
▁sensibilité
▁ventre
▁Constantin
asc
ora
▁limite
▁indiqué
ufr
ermine
▁surprise
▁écu
AV
lons
▁voile
▁conserve
▁Ci
▁trace
irs
▁pouces
Lorsque
▁dessous
▁feuille
▁sources
attache
▁Mac
▁hés
onnet
▁fier
▁sangu
▁condamnation
▁restent
▁évident
alle
▁ferm
▁gend
▁améli
▁dames
lications
▁facilité
uté
▁Ter
SS
▁py
▁cristall
▁desquels
▁horizont
registrement
▁blé
▁produisent
▁joy
▁frag
▁destiné
ENS
maj
▁circon
land
▁agit
▁tiré
igner
lions
...,
▁suivie
▁Lang
▁tuer
▁indique
▁tenue
▁église
▁tiennent
Mt
ki
auf
▁sç
aparte
▁réaction
▁superfici
▁estre
itaux
▁paraissait
BER
rabes
▁path
▁valeurs
▁chrétienne
▁Dire
▁voitures
▁suffisante
▁troub
individ
▁décider
▁départements
▁vom
▁découvrir
enseignement
▁Sec
▁équiv
▁monument
ones
garde
valle
érait
▁envah
oû
ourt
▁souh
éloign
égalité
▁trouvera
▁affections
▁Ros
▁opinions
▁civilisation
amende
itable
acées
▁satisfaction
▁kilomètres
▁opposition
▁Dan
▁tige
▁blanch
▁inspir
ommage
éte
▁oct
▁hautes
appareil
chn
▁myst
▁passi
tiles
tén
▁carrière
▁destinées
▁multipli
▁remplacer
▁profondément
▁courte
ommé
▁désire
hal
▁ii
vingt
instant
oni
▁RÉ
▁exposé
champ
▁féod
▁poésie
▁venue
▁continua
TES
▁nullement
▁faudra
▁présenté
▁juridiction
▁Nos
vation
ére
IÈME
pin
tition
économie
▁sourire
▁ox
aspect
▁expression
nn
▁groupes
axe
ésic
aura
▁Ton
oral
enci
attaque
▁viande
▁Marse
▁mandat
▁richesse
▁hui
did
▁réfléch
▁expérience
▁PREM
▁étude
▁Offici
▁saison
OP
Pierre
▁croyait
▁manifeste
▁intime
▁apparence
ulsion
▁bande
▁historique
▁Pol
▁emploie
iliation
apon
▁entrée
▁utilis
▁précautions
▁morceau
▁fureur
▁Petit
ua
▁espagn
▁fidèles
▁pomp
▁touche
▁décrit
donnance
fie
▁cessé
tructions
▁commencer
▁rond
▁total
▁prolonge
▁Ev
▁rob
▁forts
▁certific
▁juill
▁César
▁connus
▁maîtresse
can
▁-,
acer
ilis
imon
▁appare
▁destinés
▁patern
▁magas
▁concent
▁connais
▁meilleurs
êché
▁croyons
▁sable
▁resse
▁épuis
▁témoignage
▁avions
▁mass
▁représenter
atures
ILL
apport
▁saisi
accro
▁indiquer
▁Mag
▁retrouver
rices
énerg
infanterie
utilité
DA
jection
▁atteindre
asion
▁fâch
ortions
▁observé
▁frappé
▁oblige
RIE
▁nettement
raise
rédéric
culaires
▁propose
».
oule
▁pouvez
▁fréquent
▁El
▁résol
applique
▁importantes
sign
▁allez
▁prière
TIQUE
▁appelée
▁correction
atin
▁var
▁chaîne
▁passent
▁bri
▁Vierge
édé
▁Né
uent
▁out
▁cite
RU
▁ailes
▁Compagnie
oreille
▁Att
▁Comte
ulations
èvre
▁plans
▁fibres
▁appelés
entretien
▁affir
▁délits
▁élég
oison
▁franc
environ
▁attaché
▁cinquième
▁perç
▁attendant
▁souvenirs
▁magnifique
▁véritables
▁Lou
▁volontiers
▁Avant
▁resté
▁chauff
▁restre
▁choisir
▁refuser
oile
ermain
▁abou
▁marbre
▁matériel
;~
ham
omas
▁Peut
▁pénétrer
▁nuis
▁sels
autorisation
LET
▁couvent
▁observation
▁rose
▁effort
▁Lettre
▁oublier
▁permission
▁redev
▁ench
raisembl
ardes
▁supporter
▁printemps
▁prononcée
▁spont
▁tombeau
atrice
▁douceur
▁fausse
gre
▁subir
onf
▁variété
▁camar
▁habitans
▁trouvaient
èges
▁plat
▁arbre
sionnaire
▁promis
▁disparaître
élever
▁traces
▁tumeur
▁excessi
▁documents
El
lies
▁Capit
▁légale
uation
▁cavité
▁prononcé
▁instrument
)'
▁marchands
▁da
▁fact
▁Bretagne
ancé
▁pét
illons
▁Cond
▁peintre
▁For
▁tome
▁tète
▁céléb
▁obscur
▁vendeur
ORT
actions
onction
▁désert
▁privilège
▁Europe
rn
TIONS
enser
raphe
▁intes
▁noirs
▁machines
▁Châ
▁Dr
▁dangers
lien
jà
èdes
exerc
▁spéciales
▁garçon
exploitation
▁Mer
▁carré
rateurs
▁blanches
oigne
▁jadis
▁rouges
▁lour
▁toit
▁proph
▁législateur
▁tyran
obtenir
▁artifici
▁conforme
▁lai
anée
▁seules
isté
▁diman
▁aide
▁potasse
▁jouissance
▁sér
▁alté
erine
oltaire
▁positi
▁institutions
▁voulant
▁activité
▁dévouement
▁phy
▁rô
Vo
lend
▁Journal
▁Procureur
ÉE
éclat
engage
▁démar
▁scienti
hos
▁XXX
comm
▁examiner
alem
▁tom
▁Comb
▁ruines
▁Toulouse
▁lentement
fa
▁madem
▁desdits
arts
▁Tra
ignor
▁pous
▁analogue
▁national
▁domestiques
TIE
appliquer
▁Celle
▁églises
▁Allemagne
▁Mémoires
▁puissances
▁règlements
▁grat
▁romaine
▁contiennent
▁assist
▁pus
▁Rhin
▁café
arrivée
▁blessé
orations
▁collection
▁innoc
▁routes
▁contrées
▁prudence
▁vieillard
OUV
▁aus
▁racine
▁universel
yc
▁Cré
▁Boul
hôpital
▁contenu
orrh
▁train
▁savons
▁diminuer
quier
▁prai
cations
▁étrange
▁Grèce
▁étrangère
▁fri
itres
▁soude
▁exécuter
CL
▁tâche
intéress
▁colonie
▁disparu
▁détermine
▁Versailles
▁littérature
▁personnelle
cir
ativement
▁destruction
▁bourg
▁circulaire
▁sch
▁Chine
▁paroi
▁retrait
▁commissaire
rite
▁raisonn
▁morceaux
Cl
▁statue
médiaire
▁parla
▁revint
▁Dav
▁Comité
▁fameux
▁modifi
▁médioc
▁retran
éal
▁distribu
ung
▁oncle
▁climat
▁fis
lements
▁charbon
▁épre
▁Ri
teurs
lation
▁satisfaire
▁duchesse
opposition
▁devi
▁rencontrer
▁vainqu
▁résid
▁semaine
▁jette
▁odeur
▁maximum
▁empereur
ino
Voir
▁député
▁sombre
▁station
ients
▁surpris
▁probable
▁crut
▁insuffis
ks
▁douter
▁passait
Cons
IM
ABLE
▁municipal
▁créance
▁conversation
mie
▁Made
▁Jan
▁natur
▁campagnes
heurs
impôt
▁descendre
zième
▁nerf
▁observe
▁nev
▁proposé
arbre
▁capacité
▁mademoiselle
œuf
▁métier
rt
▁pourvoir
▁supérieurs
▁promptement
épaisseur
chés
▁cesser
▁asc
itait
▁chiens
▁détourn
▁servant
▁flor
▁pard
▁signé
▁assuré
urée
▁legs
office
▁coqu
euvres
▁parvenir
fes
lég
▁Cf
▁dilat
▁rigueur
▁guérison
▁TH
rion
▁cuir
ji
▁incont
▁millim
jon
audi
endes
▁prohib
osc
▁révél
▁attaque
▁profiter
▁brave
▁vésic
▁facultés
▁obligation
uch
oun
▁soulev
▁détache
Voy
▁gri
▁disposer
impression
▁Har
▁monuments
▁voyageurs
▁aimer
▁préparation
EX
▁Hug
igny
Ue
▁concurrence
Qui
▁effray
▁nommés
sep
▁créer
▁parent
entir
▁Allem
uifs
▁fourni
emens
▁obtient
▁monast
▁accordé
▁consommation
▁masses
Ph
cie
veille
OUS
▁na
domin
veiller
▁Cam
▁coût
Orient
▁avent
orable
▁sén
▁retrouve
▁poursuivre
▁Gl
▁Dup
▁pension
▁sacrifice
rab
▁boul
estation
▁ordonne
▁requête
▁retenir
▁anglaise
▁venaient
CO
Pr
ujet
▁tac
▁justifier
alie
▁Ibid
▁adopté
▁laissent
▁proportions
▁joue
▁Lam
▁laine
itées
▁Venise
▁supposer
▁compétence
▁essentiellement
▁San
▁créé
▁sangl
▁bêtes
▁victime
▁établit
▁Belgique
▁plaisirs
com
ople
▁janv
▁genres
▁Grande
col
ilibre
énergie
▁venant
▁renoncer
▁intelligence
quets
▁définitive
▁taill
▁messieurs
▁robe
▁rangs
▁venus
▁soumettre
acre
▁annon
▁Berlin
ÉT
▁arrêts
▁obstacle
UB
▁fan
▁toile
MAR
▁héréd
▁cub
andie
ysie
▁Pri
instru
▁Voltaire
tration
▁tourner
IB
▁résulter
▁Marseille
émin
▁néglig
▁dommage
urine
▁Palais
▁populaire
▁Dis
tible
▁distribution
agés
avan
erreur
▁Hollande
▁Gra
arrond
▁angles
Mon
auff
▁liquid
▁Cat
▁accès
▁messi
▁assure
▁résist
intérêts
▁roman
▁dorm
▁latér
▁intit
▁offrir
VIII
▁rect
▁têtes
▁candid
▁changé
▁diriger
rien
▁cum
▁code
▁rendue
▁obligés
▁intérieur
▁bâtiment
Mal
iral
siers
▁richesses
▁mû
▁foie
miques
rateur
▁argu
▁pluie
Pendant
Asie
▁Chez
▁matériaux
▁signification
▁rh
▁soupç
▁jardins
assurance
▁pât
▁irrégu
▁apprend
▁soeur
▁lésion
▁Long
▁dissim
;;
▁Georges
▁clin
Arch
▁congé
▁ruine
Aug
▁Ici
▁régul
rue
fond
rimés
▁épais
▁surplus
orn
▁Arr
▁bais
▁roch
▁verd
▁criminelle
élité
▁instruments
èbres
▁origin
▁extérieure
▁assemblée
quise
▁flui
▁centrale
▁Convention
▁fonctionnaires
tille
▁conquête
▁ic
ymph
▁prud
▁Maître
▁Ré
atine
liqua
▁variétés
▁magistrats
ÈNE
▁color
▁joign
▁diminution
▁Ben
▁taxe
▁répét
guerite
▁plume
inscription
▁from
aments
▁Parmi
▁proie
▁mineur
▁moeurs
▁liqueur
fol
▁Gar
▁Bois
▁mine
ateaux
▁budget
▁épouse
▁réforme
illage
dom
anth
ÉNÉ
orraine
comp
▁mart
▁analogues
▁contraires
▁Portug
▁incontest
▁dose
étation
▁leçons
▁pourroit
▁),
▁lie
▁prier
▁usages
▁Frédéric
▁nomination
ître
▁île
▁indigènes
oyen
▁saints
▁demandes
Tous
'&
ufact
▁parts
cemment
SC
mann
▁globe
▁pères
▁Suisse
uif
▁erreurs
affection
▁entreprise
▁effec
▁navigation
Ne
▁pâle
▁comparaison
▁Do
▁Ep
Alex
tons
▁lun
▁démons
▁manières
▁compagnons
▁rechercher
▁suppression
▁Ass
▁catholiques
▁spec
entique
▁détruit
▁constate
▁altern
▁comité
vel
▁réel
▁syph
▁Sénat
▁plaie
▁eh
▁Trois
▁supplé
▁Bonaparte
los
Cass
▁Dum
▁habile
▁naturels
▁signifie
ERV
▁parag
élection
▁Leg
▁Tar
▁volumes
▁PH
adju
▁saut
▁délicat
armer
▁fautes
▁condamnés
dam
▁Gir
▁bap
zaine
▁Math
▁sols
▁contrôle
▁Sud
At
▁constaté
▁excellent
Ev
cnt
▁résultant
▁Provin
▁primitive
▁personnage
pel
▁prête
▁étendu
▁élève
▁remarqué
▁dor
ygène
▁froide
▁fenêtre
▁problème
ka
âne
▁perm
▁alcal
▁appliquer
▁uno
▁syndic
ami
ducteur
▁exacte
▁domestique
LAN
▁Luc
▁faim
▁chargée
ïs
▁central
▁cra
▁hect
▁Id
acée
▁distri
Ag
onna
reaux
dez
▁labor
▁pais
▁af
▁examen
aug
▁Ath
▁Reg
▁prêter
▁concert
▁phosph
▁artistes
▁monarchie
▁françaises
▁europé
INS
atom
ortun
▁retourner
▁Guy
ticle
▁dépôts
▁joindre
▁universelle
▁bann
▁Terre
▁pertes
▁chiffres
MB
▁Her
▁dimensions
AD
▁AL
▁Ban
▁quod
▁Antoine
▁fabrique
▁connaissances
▁Mai
▁radic
▁gravité
▁prévenu
éh
▁âgé
▁verra
adresse
▁prières
▁remarquables
▁vn
nels
▁comtesse
▁expédition
▁représentants
▁hi
imes
▁logique
▁accompagné
▁creus
▁hardi
ercices
▁cacher
▁reproduit
▁sépare
▁maritime
Sa
illi
nées
▁tranquille
Ang
arb
aval
▁pair
▁roug
érales
▁local
▁apprendre
za
épr
comme
▁discipline
▁différences
▁envoya
▁voulons
▁Lo
▁Pays
▁destination
▁Entre
▁estim
▁traduction
▁boire
▁décri
AINT
▁relever
Inde
uleux
invent
sibles
▁capables
▁fief
▁tendresse
▁°
omètre
▁désespoir
▁formalités
▁luxe
▁Naples
▁acquit
Egypte
▁varie
aver
▁justifi
▁conclusions
▁Corps
▁étions
▁époques
pé
▁Jur
▁course
▁ménage
▁naturelles
acés
▁appeler
lammation
▁totalité
▁différente
▁villages
Cet
major
çaient
▁sauvages
▁Te
▁vase
▁calom
oqué
▁dam
▁acides
▁Tant
▁adju
▁hier
▁honte
▁école
ker
erte
nier
▁tén
▁quere
▁réduire
▁registre
Cel
▁équi
▁achet
▁écrite
▁accueil
▁pénible
▁écrivait
▁remède
▁Nicolas
aissement
▁résister
enregistrement
uge
▁feroit
▁devront
char
amitié
▁défunt
▁oreilles
ouvant
▁corde
▁désordre
▁alién
▁intention
dier
▁Fig
▁sensation
▁vengeance
endie
▁mange
▁Claude
▁quator
▁élevés
▁bac
▁séparer
▁garnison
▁arrêtés
▁contenir
▁expédi
ignon
ressement
▁tourment
.»
hysi
▁Pau
sectes
va
▁gai
▁joli
▁relie
▁malheurs
▁habitudes
isses
▁opposé
▁permettent
▁prisonnier
mond
▁papiers
▁constante
énie
▁puissante
▁meu
▁présomp
▁substitu
▁perpendic
▁résidence
occuper
ôpitaux
▁chancel
uls
exam
▁quad
▁progressi
Ass
▁los
endez
▁fêtes
▁suivent
▁autorités
▁déterminée
▁cc
arth
▁May
▁épaules
▁augmente
▁propositions
▁Nav
atisme
entrer
ed
▁aî
ANCE
sept
▁chambres
▁SUR
ula
AY
▁centi
▁évêques
ren
▁couper
▁Juge
▁initi
Voici
▁aul
èches
▁lien
▁restau
▁mettent
▁fondament
bri
▁verb
itement
▁allong
▁enlever
▁prenait
▁établies
▁servitude
XXX
ultes
▁espé
astique
▁constituer
alb
▁Conc
itudes
▁oublié
▁blessés
▁admirable
midité
▁fines
Car
▁nit
éraire
▁remet
▁employée
teau
pec
▁Guer
▁sons
▁psych
agnostic
oii
rang
espère
urique
▁races
▁irrit
tension
▁débarr
oïdes
▁Cours
▁veines
▁occuper
▁atteinte
»,
▁fixée
▁clause
▁Espagn
▁réduction
xi
▁indép
▁tours
umineux
tige
éles
appréci
mor
▁allemand
▁réclamer
▁AB
rain
offre
▁susceptible
chées
▁régulièrement
▁ens
▁aliments
▁rapporté
▁grâces
ATIONS
aix
ick
▁Hu
▁clans
roc
▁tuteur
illement
fc
MES
▁minute
▁résolu
▁multitude
')
mides
onnent
assadeur
▁démocra
GU
éth
endront
▁touchant
PO
adop
▁pronon
▁compens
▁tuy
▁canons
▁Alexandre
▁voudrais
▁satisfait
▁pp
arté
▁Vir
▁brûl
▁onze
ouvrir
▁Indes
▁verrons
ELLE
▁Vén
▁indire
▁échapper
mons
▁dieu
▁victimes
▁respiration
TIN
▁définitivement
uise
▁XVIII
▁ia
▁fatigue
▁décisions
▁sauvage
▁vives
▁souhait
▁héritier
pire
taient
▁construire
anco
ench
court
▁accepter
▁rub
▁récl
▁allég
▁reproche
ASS
▁sain
importe
▁mercure
▁accorder
▁bases
▁ouvrir
▁minis
▁quoti
▁représenté
▁Constitution
No
orc
fiques
▁poursuite
▁juf
▁lign
matique
!.
aimer
ission
▁lecteur
▁rivières
▁transvers
▁CO
agon
▁examin
ffi
onnées
▁graines
lières
▁attent
▁désigne
aveu
▁ate
▁pli
▁loge
▁pensé
▁faillite
▁montrent
~'
▁Mgr
▁dîner
▁régler
oges
▁normale
▁visiter
▁demandait
anou
▁bot
▁Reine
▁charme
èses
▁Fin
▁foy
onies
▁trouvant
UT
▁glob
▁glace
▁sortit
▁généreux
▁méridion
▁occident
Ah
▁bag
▁brut
▁cell
▁spéciaux
▁confusion
laud
ristianisme
Unis
eurre
▁Cheval
▁dyn
▁auth
▁civils
▁coucher
▁reçus
agissait
▁instructions
oa
▁ball
▁ports
▁vents
▁pans
▁Domin
▁Leurs
.:
chéance
▁applicable
▁articul
▁Trés
▁contrée
▁March
▁mobile
▁pose
▁bienfais
▁MÉ
▁coi
▁collec
▁muqueuse
▁considérations
▁naï
▁termine
CC
▁iss
▁active
▁vessie
ribles
▁énergique
▁Même
▁dimanche
âce
▁nar
rév
▁OU
mière
▁scand
▁connoiss
▁augmenter
escl
▁ois
ommod
▁Rich
▁piété
▁Espagne
▁frapper
▁développer
▁cost
▁mises
mosphère
▁réunies
▁fallut
▁commerç
▁Quelque
▁extrémité
▁adm
▁Mère
▁Conse
individu
▁poursui
▁présid
bserv
▁vote
▁vraisembl
achet
▁précé
ajouter
▁membrane
isson
▁relation
▁PR
▁influ
▁laissait
▁résoudre
▁sécurité
▁aqu
habit
aintenant
housiasme
mus
▁périt
▁précaution
▁consign
mais
lesse
▁privée
▁énorme
▁portées
▁Officiers
▁jugements
▁bains
arriver
▁trembl
imagination
▁considérée
▁jeux
▁pénal
▁fermet
Char
▁collège
rép
▁relatif
▁Dép
▁fores
▁indications
▁Lab
;!
▁tempor
▁égales
▁physion
▁extérieur
▁Bre
▁dénomin
▁amie
sa
▁aimé
▁jeté
urier
dictions
▁prochain
▁apporter
▁lune
▁plong
années
▁chang
▁parlait
fic
mal
▁Mi
▁canaux
▁registres
expliquer
?.
elet
▁Marc
▁salon
▁recourir
lre
▁corn
▁courbe
▁refroid
cit
étit
▁Bernard
iré
▁gro
uv
~,
▁folie
▁justement
▁correspondant
▁revi
archit
▁Roche
▁récompense
▁composés
▁partisans
▁plaindre
▁Plusieurs
▁composent
chet
image
isées
▁trac
▁Sauv
▁choc
▁stri
▁sacré
ordinaires
▁chronique
▁Auc
▁Vie
▁combats
▁mystéri
▁associés
▁bloc
▁fallu
▁monte
▁plaît
▁manufact
▁organisation
*,
sons
▁Not
▁carte
▁choisi
▁lumières
▁expériment
▁vices
rom
tus
upp
▁gradu
limin
▁diplom
▁rochers
delà
étér
▁récemment
éros
▁pist
▁dirai
ousseau
▁différent
▁Sent
▁étal
▁Thomas
▁réparer
▁simplicité
cor
▁zone
▁vivent
ban
▁He
▁dus
▁normal
▁provoqu
▁Normandie
▁administration
ineux
▁esti
▁exact
▁quitté
▁doucement
êne
▁rur
▁Jules
▁Nation
▁charger
▁Fait
▁messe
▁porta
▁considère
enons
▁vague
▁honnête
▁solides
▁curiosité
nis
osa
uet
▁montra
▁demeurer
▁aig
▁donnera
▁signature
▁coton
▁flamme
espérance
agir
▁Tri
rines
▁savants
▁brusquement
▁délibération
chez
▁Ouv
▁scrup
cieuses
▁repose
oulement
▁préfecture
elli
▁tomba
▁jusques
▁végétaux
aisser
▁conclu
▁bénéfices
usufr
onnier
▁langues
▁brillant
▁Catherine
moniaque
▁quantit
▁vête
tio
unique
▁Lorraine
▁consacré
rl
▁At
▁symb
▁prétendu
▁fal
▁réception
▁bec
▁contraint
▁adresse
▁protéger
▁paï
organe
▁cherché
▁Vol
▁biz
imens
▁furi
▁paysans
ciers
ISTOIRE
▁promet
iant
illé
▁cime
▁inég
▁neige
▁rasse
▁direct
▁inconvénients
vait
▁numéro
▁diocèse
▁mettant
rité
▁fenêtres
▁reprises
▁trouvons
▁Marguerite
▁ordonnances
▁supérieures
▁ha
▁placées
▁remplit
▁liquides
▁soumise
▁prospérité
ht
▁jure
▁rêve
▁ressemble
ola
amor
▁Lac
▁Lib
▁coutumes
▁perception
▁az
enter
▁obtint
entiment
arrondissement
▁cire
▁jambe
Histoire
▁conventions
by
▁écout
▁Tribun
▁emprun
▁fraude
▁esclaves
▁privilég
▁ridicule
▁EX
▁Victor
▁goutte
▁organe
▁voisine
▁coupables
▁événement
cès
▁Us
▁lic
▁Royaume
▁industrie
▁couverte
▁ct
▁Bri
alién
▁gage
▁civiles
▁écrivit
▁réaliser
▁ministéri
▁recueillir
▁précédemment
▁décompos
Oui
▁serai
▁bronze
▁élector
▁certitude
▁rigoureuse
Puis
chon
▁PRÉ
▁Mari
▁fusil
▁sévère
ensive
▁réalis
ogn
▁décide
Marie
▁disposé
▁aperce
épendance
▁assemblées
'-
ei
acun
pres
▁Bay
▁flan
▁relatifs
▁réflexion
ondi
▁Supp
▁confirm
▁pratiques
mpe
▁inspi
▁abandonné
gérie
oub
autel
▁splend
traction
▁brigade
tras
▁bain
ducation
oge
ÈRES
▁esc
aliment
▁Trésor
▁instin
▁cend
▁devoit
▁hist
▁espace
Quoi
▁Tel
▁Juillet
ïn
▁fo
entraî
▁administrative
pri
▁bandes
toi
▁feux
▁em
▁Moi
▁appareil
▁instance
▁souffrances
▁susceptibles
▁constructions
................
▁pè
▁profondes
intervention
Plus
▁Lin
▁lord
ériques
▁défendu
▁partager
▁correspondance
▁planches
▁jolie
▁empire
orf
▁déci
étaires
▁diable
▁aimable
▁prodig
▁desquelles
▁internation
▁,,
▁tut
étition
▁paralysie
▁bureaux
oust
édrale
▁mètre
▁terreur
▁réglement
attre
▁chevaliers
▁ll
iger
▁patrio
▁littéraire
uité
▁gorge
OD
▁répéter
▁construit
▁tranquill
▁contributions
▁nommée
▁privilèges
▁Poli
▁épis
▁accordée
▁voisines
Non
▁seize
heureux
▁CHAPITRE
▁IL
arrête
▁Pologne
▁gla
Arrêt
alogue
▁mante
▁prouvé
dieux
dique
inqui
François
▁réparation
▁Ja
▁muscle
▁faisoit
▁Monseigneur
▁Sam
▁lav
▁confis
▁exempl
▁honneurs
aigu
▁Barb
angile
▁courb
▁imper
▁chapeau
▁infiniment
Aux
▁rab
oxygène
▁phrase
▁rapidité
▁changements
▁élever
Dieu
▁Pres
▁battre
▁distill
▁rendait
organisme
▁Fontaine
ÉS
▁bornes
▁Dauph
▁chaude
▁fidélité
orth
exercer
aises
▁parfum
▁savent
▁existait
aillant
▁vinrent
▁tendance
▁délivrance
yth
▁Camb
▁taux
▁combus
▁trompe
▁ouverture
▁conclusion
▁ruisse
▁répondu
▁succomb
▁contrainte
▁couvrir
▁finir
▁grade
▁grain
▁dignes
employer
▁exécuté
▁spéc
utérus
▁déclara
▁Jo
érapeu
èvement
arra
▁foli
▁tion
▁décor
▁porteur
prop
.....
anton
Univers
▁éval
▁rédaction
▁causé
▁systèmes
▁écrivains
iège
traire
▁péril
▁marqué
▁extraordinaires
▁accro
▁neveu
quéreur
▁primitif
asp
ancy
▁proche
▁indemnité
vn
▁excepté
▁préparé
▁antérieur
▁cités
▁suprà
▁pesant
▁Max
▁Jamais
▁excl
▁appell
▁retire
▁traverse
vidence
▁chauss
▁Civ
▁nett
reuses
unis
▁gentil
▁étudier
▁successeur
attacher
▁terminé
▁connaissait
ee
calier
▁défi
acquit
▁financi
▁signaler
PP
oble
▁recons
▁repris
▁promesse
▁manuscrit
arter
▁patience
▁PREMIER
▁espérer
▁intellect
▁and
▁bouill
▁oss
▁loint
▁intéressant
▁ges
abbaye
▁monnaie
▁entreprises
"'
entrepr
▁communs
▁désirer
▁élevées
▁GU
mère
▁domination
▁importants
tn
▁puits
antiquité
▁interdit
TER
elin
▁Pic
▁Alpes
▁préalable
▁bataillons
menses
▁Malgré
▁signifi
éroï
▁flotte
▁billets
▁ramener
aria
TICLE
uriers
▁moments
▁économique
;)
oies
▁Camp
▁envoyer
▁rétablir
ION
atus
▁vendu
~&
▁jaun
▁faces
▁convul
leg
ends
oquence
▁méconn
▁philosophe
pice
général
▁archit
▁stup
▁frappe
miere
▁nutri
▁prépare
▁centimes
rets
▁vil
érences
accompagn
▁défauts
itz
▁Genève
▁désesp
▁espérances
entin
▁céder
▁oeuvre
▁demandeur
,-
▁jo
▁guide
▁incess
▁perséc
▁Van
▁amené
▁ferai
▁sénat
▁Congrès
▁éloigné
▁exercices
estime
SECTION
▁antique
ye
REN
org
▁comédie
indemnité
▁appliqué
eres
▁poursuites
Jac
▁cic
élect
▁adhér
▁beurre
▁raconte
▁Exp
▁Prov
▁formés
▁résumé
▁Syn
▁Maison
omne
▁jury
▁méch
▁réflexions
ij
ald
iration
▁désigné
expédition
arum
▁las
▁attache
▁express
Ma
▁Anne
▁tabac
▁accout
▁reçoivent
abus
▁bulle
érusalem
▁récolte
▁inférieurs
▁pharm
▁retrouv
▁expressions
olis
inité
iciens
interpr
▁soumet
▁démontrer
▁Cab
éclar
▁perc
▁Savoie
▁timbre
▁vivres
▁attaques
▁hont
▁vrais
▁refuse
▁Général
▁vulgaire
▁ny
écrire
▁contrats
▁mere
▁inscription
▁entré
▁cartes
tro
ÉNÉRA
▁partit
▁quitte
▁réunit
▁chagrin
douard
▁précédentes
Son
▁mang
▁inutiles
MI
▁jeta
▁ponts
urrection
▁répartition
gny
▁anc
horiz
▁angle
▁amener
▁plateau
▁rembour
IVRE
▁poi
▁impériale
▁moyennant
▁mécanique
NES
▁Sén
antill
▁tin
▁matel
▁divise
▁funeste
▁poissons
."
adj
olit
vice
▁nourr
▁offrent
ographique
pit
und
▁iv
ervent
▁matern
He
ISE
itages
▁réfug
▁affirm
▁bailli
▁quantités
▁singulier
▁physionomie
▁access
▁hommage
▁lame
▁hôtel
▁éclai
enz
▁télég
▁songer
▁poisson
▁rattach
ormations
▁Div
▁Sol
▁costume
indépendance
▁hâte
▁continent
▁certificat
▁Sci
▁arb
oxyde
▁heureusement
▁malheureusement
LLE
oil
▁siége
▁Commun
▁troubl
▁plaintes
▁exercice
▁transpar
▁Lieu
▁band
rogène
▁débar
▁équip
▁clairement
▁vécu
▁Milan
▁aurez
▁Aujourd
▁ordonna
▁rameaux
ification
▁démontré
▁confondre
▁difficiles
▁malheureuse
lon
▁alb
Hôtel
▁tres
▁mariée
▁plaign
▁monastère
▁agent
▁souffle
▁variable
▁diagnostic
▁transporter
cession
arrêté
gnation
▁modifier
▁attributions
ipp
ott
ingt
▁physiques
gué
▁pleins
▁journées
▁leva
aujourd
érables
▁impérial
non
▁enn
▁pouls
uxelles
▁autorisé
▁liens
▁sèche
tices
▁volontaire
▁affai
▁mineurs
▁remplacé
▁tt
Deux
▁faç
▁dira
▁cession
▁décrets
bat
embr
▁inconvénient
ester
▁tonne
othèques
▁appareils
âcher
▁demie
▁domaines
risonnement
MIN
▁pulmon
▁attribue
alté
▁sections
▁communiquer
xim
▁défens
▁absence
▁Allemands
▁provoquer
lc
App
COM
utés
▁croyez
▁constant
▁régulière
▁allant
▁valoir
▁dépouill
assant
▁corri
▁image
▁saisit
▁Rem
▁guérir
▁Princes
sionnaires
▁ecclésiastiques
ÈS
atio
inst
▁dits
▁postes
▁apparaît
▁délivrer
▁Sir
▁rup
▁prévu
▁retira
▁terminer
▁PE
▁née
analyse
▁PARTIE
iés
anus
illy
Toute
▁Juifs
▁ff
▁pend
▁mécont
▁vêtements
aré
▁mau
▁Hist
▁enfer
▁flots
▁remonte
▁Jérusalem
▁Hen
▁désirs
▁attachés
▁dér
▁voûte
▁amitié
▁anatom
ûmes
▁join
▁avocat
▁explique
▁terminée
TA
iène
▁mâle
ustin
▁fréquentes
▁intentions
▁adversaires
ôse
▁Nantes
▁échange
▁convaincu
urés
▁Sac
▁ame
▁passés
▁tante
▁alliés
▁exprimer
▁Mort
ensé
▁aud
étail
orgueil
▁paille
▁taches
beau
ordres
▁estime
onyme
▁égaux
▁fragments
tor
urie
▁dons
▁fins
liquent
▁avance
▁passages
umine
▁récol
▁aimait
▁bibliothèque
▁déclarations
▁Constantinople
titudes
▁serais
▁entouré
aton
▁paris
▁craint
▁diminue
▁sanction
▁SO
rèrent
▁contag
▁humaines
▁recueill
▁différens
▁fondement
▁véritablement
ok
rui
▁dan
ardie
▁rhum
▁Turcs
iterran
▁violent
cev
▁therm
▁manqué
▁carbonique
▁Anti
oblige
▁centres
extérieur
▁addition
▁indiffér
▁intestin
▁millimètres
St
▁nou
▁russe
▁Arabes
,&
ms
▁Mah
améli
▁paup
odique
▁cadre
▁étroite
▁fondation
▁rocher
▁produite
▁prétendre
▁besti
▁marquée
▁organiques
▁David
▁conçu
▁paragraphe
▁lan
▁vêt
▁partant
▁allaient
assins
▁tromper
▁responsable
icale
Depuis
rirent
▁moléc
▁situés
BE
▁dépour
ïe
▁SU
▁opérer
▁remonter
▁librement
▁Ed
ONNE
▁Bourbon
Ap
céan
▁excéd
▁mesme
▁mobil
▁suivit
attendre
tifications
uyer
▁boute
▁inves
▁restes
PRO
▁CL
venir
istocra
▁Espagnols
▁populations
issons
▁injus
▁lymph
▁The
▁hôpitaux
▁catégorie
gner
tise
▁impati
▁Fac
▁die
▁Dame
Antoine
▁contribution
omte
▁Fou
▁bénéfici
post
▁arg
illus
oises
▁XVII
▁thérapeu
▁favorables
ayer
Ecole
▁Metz
▁Rois
▁métaux
▁risque
▁venger
'~
▁oh
inée
▁envoie
▁quatorze
ammoniaque
▁rencontré
▁.,
chen
oria
▁aug
études
▁massi
▁mauvaises
▁rage
▁ventes
▁Florence
▁ressent
▁tranquillité
▁'.
▁bouil
▁écras
illaire
▁éducation
point
▁tourne
▁assimil
▁marchés
▁éprouver
▁transformation
▁efl
▁écoul
ouvrier
▁teinte
▁présenta
▁uniforme
▁historiques
▁Juin
▁connues
▁sulfate
▁torrent
ophy
▁Gran
MER
six
▁Bé
▁dog
cript
▁rude
▁prussi
▁existent
▁parallèles
ultan
▁mince
gestion
TS
jj
▁New
oiles
▁Franc
▁contrô
▁sensiblement
▁inclin
▁impuiss
▁dilig
▁faciliter
▁concession
▁expressément
Pl
MAN
▁levée
▁persist
▁réservé
▁variations
ismes
▁avou
▁reçue
▁claire
▁prirent
▁éclaire
▁aï
▁évent
▁vastes
▁hauteurs
▁législatif
tilité
▁vagin
TRA
aisie
umens
▁coute
▁voyageur
▁consulter
▁André
▁veiller
▁audi
▁dram
▁mers
▁nourrir
ifs
▁sot
Germain
▁exiger
▁surviv
▁régulier
▁dys
trois
▁gast
▁menace
▁sentait
ords
▁Vend
▁commet
▁failli
▁impôts
▁supplément
ORA
orig
ueuse
▁dol
▁couvre
▁précède
ÉN
▁représentent
asi
len
▁ion
▁écart
▁Religion
▁attribuer
IÈRE
▁images
▁puni
uleuse
aisance
▁fermier
▁positions
▁enlevé
▁marques
ao
étendre
▁inconnu
▁inscrit
▁voyages
▁conception
▁impression
éfin
▁avr
▁lion
nelles
▁ceste
▁veine
▁premiere
JE
feu
▁galerie
▁précédents
▁Nom
▁arc
▁engagé
▁revoir
▁transports
▁bé
oines
▁peux
▁certes
▁servait
▁supériorité
assa
ello
anime
▁cerv
▁subi
▁atteign
▁présents
▁chasseurs
▁combinaison
osses
▁poser
▁accorde
▁pousser
▁comprenant
orrhag
▁pieux
▁moelle
▁voient
ortation
▁désagré
▁clo
avent
▁mess
Esprit
▁abatt
tructure
▁envoyés
▁abondante
▁techn
▁billet
▁chasser
▁productions
▁réparations
Sans
▁aurons
▁modification
▁hâ
▁Poi
▁pup
▁Baud
▁saign
▁vaincre
▁héroï
▁allemande
▁Virg
▁brevet
▁restitution
AUL
▁gras
▁pêche
▁hypothèse
▁contravention
chent
▁tenté
▁chlorure
▁transmis
père
▁arme
ographe
▁obstacles
ley
itez
▁constitué
▁misérable
▁leçon
▁quitta
▁circonf
▁réduite
▁JU
▁ber
▁bête
MENTS
▁clôt
▁mous
▁causer
▁suspend
▁tristesse
artiste
▁pousse
▁criminel
▁kilogrammes
iff
atti
olet
▁imb
ertion
térité
▁GÉNÉRA
Te
Aut
ape
▁Mart
▁vass
▁gliss
▁jalous
▁subsist
instrument
▁œufs
▁Allons
empr
ophie
obscur
▁habituellement
OLOG
▁heur
▁épaisse
▁précision
▁Ro
▁fui
▁math
▁trous
onnerie
▁délire
▁textes
▁diffère
RON
AIRES
Voilà
horizon
▁découvertes
cope
▁Belle
▁mystère
▁appelait
▁poussière
▁suffisant
▁affec
▁tracé
▁violente
▁voudrait
▁inférieures
▁xx
lets
▁Amb
▁Dub
▁fec
olition
▁assujet
▁organique
▁possibilité
▁prescriptions
Ju
▁pavillon
▁Règ
grais
éviter
▁boule
▁siens
▁faisons
▁décharge
▁Feu
▁fro
▁gib
▁encor
▁énergie
▁caractér
▁désigner
▁pente
▁améric
▁Nouvelle
▁attaquer
▁brillante
▁hal
êtement
▁camarades
▁cérémonie
▁péd
▁Pomp
▁bibli
entrion
▁paroît
▁consult
tifie
▁Phil
▁plaque
mblement
▁réussit
alisme
▁poche
▁plaques
▁concevoir
œux
▁Lui
▁impr
▁paci
èvres
fant
avois
onnait
▁prépos
——
ims
▁cau
▁vib
▁périr
▁greffe
▁conseillers
▁Ra
astr
▁Tou
▁Vit
▁Germ
▁devenus
▁indiquée
▁regardant
▁présentait
▁pureté
auraient
▁électeurs
▁gém
▁sir
▁sexe
▁statis
cut
leurs
▁posé
▁envis
▁ardeur
▁précep
elée
▁humeur
cté
▁soy
assés
▁embarr
▁nombreuse
▁regardait
rette
évrier
▁major
▁humide
▁perpendiculaire
▁Chau
▁chans
▁conflit
▁illustre
▁Bo
▁Dam
▁fermer
▁locale
MON
▁cho
▁vant
▁,.
▁prochaine
pa
▁crise
▁jouit
▁portés
▁roches
▁sienne
▁dispose
▁formules
▁apprécier
▁secondaire
▁imagination
êts
ROIS
▁sit
▁union
▁musculaire
aurai
nemens
▁comble
▁répliqua
assez
onnez
▁pratiquer
▁autorisation
ithé
▁Sep
Voyez
▁carn
▁faubourg
▁renferment
▁asi
▁roule
lection
verbaux
▁incert
▁éti
leine
▁Simon
▁berce
▁parens
▁modeste
▁publier
énées
▁poëte
▁mélanco
▁lès
▁dors
▁péch
▁vagues
▁secrets
▁mond
▁prétentions
▁litre
ugn
hypothèque
rum
▁dépit
▁litres
▁mirent
▁acquérir
▁souveraineté
▁décr
entour
▁devin
▁prêts
ceptions
▁sacrifices
initi
▁flat
▁saveur
▁corromp
orel
▁tox
enfer
▁maintien
▁conviction
dés
égal
▁boî
▁consuls
▁planche
atie
▁post
▁objec
▁enreg
▁parallèle
▁meilleures
▁secondaires
▁Mo
▁Juges
▁pénit
▁salaire
▁intitulé
▁prescrites
▁Ang
érieure
▁préval
▁soutenu
vo
tiver
▁Préf
▁Sicile
▁retent
▁Laurent
▁formées
▁nationaux
DAME
▁Sou
lip
▁régi
ieusement
▁répandre
▁donations
▁employées
▁SAINT
▁Janvier
▁utilité
▁flatt
▁célèbres
▁frontière
Esp
▁Cert
▁Chapitre
▁christianisme
▁revue
▁attaqué
▁exercée
▁successeurs
▁fumée
arrière
iliaires
▁Justice
▁cathédrale
ileté
▁Angl
ailler
olière
▁bateau
▁fausses
▁quartiers
actes
ARTICLE
▁mettait
▁opposer
▁Bruxelles
▁TRA
▁mir
amiral
▁répète
▁précise
▁impressions
ûtes
▁dressé
lait
▁Cher
rogation
ases
umée
▁gardé
▁chirurgien
▁justes
▁souffre
mans
nait
▁refusé
▁retomb
▁JE
ommée
érine
▁abbé
▁confr
▁prononce
rabe
▁vainqueur
uées
▁capitaux
▁lance
▁accent
▁signalé
▁devenait
▁jés
▁pneu
▁dériv
▁asse
▁dédaign
▁révolte
▁éprouve
officiers
▁révolutionnaire
▁élections
dy
pn
▁Rés
▁vœux
▁cœurs
▁hélas
▁nés
ançon
▁dues
entret
▁admise
▁retiré
▁méthodes
impossibilité
enl
bons
issi
▁geste
▁punir
▁cavaliers
▁ecclésiastique
préf
▁plainte
uz
▁Pér
▁Ciel
▁sien
▁trag
▁filets
▁dépasse
TIF
ÈME
ormité
▁fluide
▁majesté
▁manteau
èque
▁sug
excell
▁sortant
idées
▁concile
▁milliers
▁sérieuse
TEUR
épée
▁Souver
▁apprit
ichelieu
▁messire
▁bestiaux
tf
▁braves
▁délais
▁abandonner
alon
▁mos
icien
▁caps
ENCE
▁foin
▁incons
▁manquent
▁Ac
▁bil
opéra
▁Loire
▁présentant
vu
EMP
▁Cin
▁mac
entiques
▁annonce
▁bateaux
▁district
▁douloureuse
▁exécu
▁exerce
▁merveilleux
ica
▁MON
▁bul
▁micro
Comment
▁tribus
▁particul
dia
urp
utin
▁farine
▁rompre
▁artiste
▁denrées
▁recettes
▁Lim
valles
▁pardon
▁soumises
bn
Déc
eri
ulés
isant
▁tang
▁Jacob
envoyer
▁ah
▁Eug
▁marin
intervalle
eule
▁Très
▁linge
▁mouill
▁précédé
▁traditions
*)
▁Pra
▁Pyr
▁net
tront
▁Vinc
▁ence
▁borner
▁marins
aissaient
▁instants
▁tentative
den
▁faict
▁poils
▁divisé
▁famili
▁perdue
▁affreux
▁CHE
▁morales
▁poursuivi
excès
▁blessures
▁possédait
▁augmentation
ANG
évé
honn
▁Bat
▁mâch
▁vigne
▁sublime
▁ù
oïs
▁fas
▁doctrines
▁hauts
▁douloureux
iblement
▁convenu
▁surmont
▁Rousseau
▁Sire
▁calcaire
▁nid
arrêta
▁Tourn
▁trouvée
ref
▁ge
arin
ract
▁Hong
▁ache
lèvement
cent
▁creux
▁serez
ada
autrui
▁ôt
▁Bab
▁Vic
▁intéressés
maire
aliste
▁cache
Jacques
▁mathém
▁voudra
▁majeure
▁possèdent
HE
Imp
acqu
dont
▁fibre
▁logis
▁vases
clusion
▁passée
▁vanité
▁précité
▁appliquée
amin
▁név
ureau
expiration
▁déposer
▁agricole
▁greffier
▁charmante
▁entraîner
▁absorb
▁boulev
▁cousin
▁parvenu
▁nier
▁install
'■
timent
▁noires
▁exister
équilibre
OE
oyé
rimées
▁soigneusement
Ann
odore
▁drag
▁rendant
▁mémoires
▁batteries
tc
▁nas
▁Ital
▁déplor
▁Pon
épaule
▁Telle
▁sentence
▁io
ourne
ulent
▁chol
▁convi
▁sociales
▁structure
▁séparés
exige
Lorsqu
riment
▁baill
▁fixés
▁prévoir
▁proposer
▁indépendant
abe
▁Ess
▁drame
▁demandent
▁cors
▁tiens
▁types
immeuble
▁Portugal
▁morb
▁parlent
▁rembours
▁recouvert
ife
aret
aussi
▁trajet
▁superbe
▁légitimes
abre
▁musul
▁tenter
▁laissez
▁supprimer
▁singulière
Op
aillie
▁teint
▁Richard
▁complex
▁Ti
étudi
▁phot
▁acquise
▁commençait
▁Arn
▁ulc
oints
ricité
▁habits
▁réseau
▁empêche
▁largement
▁promesses
onds
▁Ecc
▁ané
▁pèler
▁couverts
▁déri
▁locales
inflammation
rà
▁Fils
▁subit
▁vérités
▁comptait
▁marquise
TU
▁Mlle
enance
▁rapprocher
ombres
▁Haute
▁comédi
▁sécher
▁génération
neur
▁Gaz
▁Sil
▁pâte
▁dirait
▁espoir
▁trouvés
▁précipité
▁Providence
▁pareillement
ièce
tein
▁coû
érons
▁inév
▁évid
▁autel
▁péché
▁sauve
acheteur
▁délicate
▁rejoindre
ock
oti
▁Arm
▁Bav
▁occ
cette
trême
▁clarté
▁passag
▁Richelieu
▁voulaient
^^
▁thèse
régoire
explique
▁indéfin
admiration
Ol
▁imprimé
▁posséder
▁nue
▁Porte
▁acheter
▁luimême
▁commerciale
▁conséc
▁prévoy
▁vostre
▁apporté
▁gouttes
▁arrivent
▁monarque
▁rapproche
▁végétation
▁électrique
ulées
▁fuir
▁Japon
▁locaux
▁Coutume
nellement
;-
aur
gen
▁cart
▁accab
▁appui
▁sémin
▁conçoit
▁décrire
ouchement
▁magasins
▁pareilles
neuf
▁ail
atomie
▁pareils
▁reprend
▁souverains
▁Cic
▁mix
▁crâne
oris
▁caill
▁ronde
▁fabric
▁pic
▁venez
onniers
▁forter
▁marais
▁intervalles
CU
outez
opposer
▁prieur
ducteurs
▁adressée
▁marchandise
Mes
dium
▁étouff
▁barbares
▁Seigneurs
▁connoître
ERRE
roge
▁exposés
▁COUR
▁DANS
▁clef
▁germ
▁absor
▁plaines
▁tombent
Sous
▁tonn
occupe
▁établ
▁émotion
▁convenir
▁troubler
ato
▁Gé
▁Louvre
▁rupture
▁assurément
▁Trans
▁restée
▁calculs
▁développe
ardeur
▁félic
▁jugée
approch
▁légères
Th
Henri
▁actif
ministre
▁prétention
▁Haut
▁chants
▁lecteurs
ocats
▁quoy
▁éprouvé
▁scientifique
éry
arrh
▁mâles
▁sincère
iale
▁Bac
▁enj
▁verte
▁décour
▁relief
▁Bibliothèque
▁préalablement
▁évac
▁sixième
▁contribuer
phy
eune
édit
grand
▁Midi
▁cure
▁Tours
▁indis
armerie
▁domine
moiselle
▁logement
Oh
tées
ênes
▁Perse
▁disons
▁concord
▁incapable
▁entretenir
▁municipaux
LO
▁COL
▁livré
▁mères
▁suites
▁accompli
▁serviteur
▁inscriptions
Tu
othé
examiner
jections
assistance
▁demeurant
▁Cu
▁rai
▁confess
dix
ALES
▁réci
▁Revue
Quelques
▁liquidation
▁obligatoire
roï
essence
▁vapeurs
Dès
dive
▁stér
▁émin
▁solitude
atmosphère
nc
▁servit
▁dessins
▁modèles
▁remplie
▁désignés
▁garantir
▁commettre
▁immédiate
▁soustraire
œufs
pital
▁plaire
▁revers
iterranée
▁Chambres
▁insectes
introduction
SERV
gles
osités
▁inspect
▁postérité
▁exceptions
▁Cer
▁pommes
▁enseign
▁fortifi
▁condamner
Roy
▁Jes
▁Vos
▁esl
▁Test
▁soif
issage
▁comté
étoient
▁cordon
▁caisses
▁réclame
▁compléter
elé
rif
dicte
▁gratuit
▁honorable
▁Aff
ulant
▁sois
▁propag
▁requis
▁trompé
▁Bientôt
▁murailles
▁dangereuse
▁trouvèrent
▁notaires
▁Hé
Alors
▁soyez
▁vivait
▁femelle
▁terribles
deau
▁Lis
▁armés
adjudication
▁tempérament
▁devez
exposer
▁héritage
▁inscrits
▁applicables
my
▁Cent
▁incl
▁cylind
▁Château
▁tombé
enfants
▁reproduire
iu
mét
infin
urant
▁rendez
▁nombres
▁localités
▁Néanmoins
PÉ
tM
ief
▁Joh
avage
étern
▁Déjà
▁borne
▁fléch
▁Ec
▁vœu
▁mettez
▁complément
▁originaire
ja
▁fic
▁émig
▁fonte
▁avancé
▁royauté
▁éd
▁tint
▁nuages
indiquer
intestin
▁Mur
▁cut
▁loix
▁sire
éleste
▁broch
▁caché
oureuses
▁Diction
▁dresser
▁ateliers
emme
itudin
▁taire
▁ajouté
▁alliance
▁atteints
Eh
ba
▁vne
orption
édération
ama
uez
▁bo
âteaux
▁bienfaits
ila
▁Op
▁trép
olland
▁déchir
▁spectat
▁assister
▁contente
ageux
institution
bonne
▁fiefs
▁roses
▁possibles
yte
▁Pan
iliaire
▁Déclar
▁triang
▁ordonner
▁redoutable
mif
effect
▁vétér
accepter
hydrique
▁annuelle
▁cylindre
apparti
▁grossi
▁poètes
▁souter
envelopp
▁cruelle
▁moindres
▁confection
▁distinctes
▁accompagnée
▁septentrion
Bas
▁Va
▁chat
▁écus
▁Nancy
▁Chacun
!)
▁pyra
èlement
ignorance
oger
herbe
▁réjou
approche
▁Navarre
▁oeuvres
loi
olo
atum
ific
▁mets
▁Dijon
▁notions
▁serpent
▁critiques
▁postérieur
esc
▁Bell
▁banque
▁croient
▁écrivain
▁compression
▁instruction
▁cubes
▁apporte
▁délivré
▁tournant
UI
▁lente
▁vaincu
▁comparer
▁traverser
CA
▁exercé
▁rentre
▁touché
▁remplis
lées
oser
▁Autre
▁vivants
▁pis
▁Médec
▁philosophes
ENNE
▁allé
▁arrivés
▁aveugle
▁pouvais
▁reposer
▁programme
▁sulfurique
mc
ROIT
olfe
▁Etat
▁typh
▁essais
▁administrateurs
èr
▁Jup
▁vid
éther
onique
▁attén
▁séparé
▁abdomin
▁valable
▁amoureux
▁héritages
▁manuscrits
bel
▁bomb
▁Stras
▁baign
▁cahier
héritage
▁épreuves
▁donataire
hyg
▁Donc
▁deff
▁flex
Martin
▁Hélas
▁doses
▁Quoique
▁arrivait
,;
Ge
tour
▁envie
ocrate
▁Nature
▁préfets
isent
▁avenir
▁moines
▁montrant
▁municipale
ISS
▁XL
▁hy
ivre
▁accour
▁essentiel
▁explication
▁institution
MÉ
août
▁Roch
▁tons
▁réuni
abondance
augmentation
rel
sen
van
▁pouce
Université
▁serviteurs
▁circonférence
lore
▁Lux
▁Riv
euves
▁brum
we
▁uni
▁persév
▁choisis
▁compensation
▁Rap
▁poil
▁essayé
▁ouvrier
▁Grégoire
▁dc
eneur
▁Table
▁réglé
quaient
▁Provence
▁essentielle
zi
Denis
brale
énique
▁despo
▁glandes
▁définitif
▁remboursement
mblé
▁nuire
▁tiges
▁privés
humidité
▁sulfure
▁distingué
opie
▁ouvre
entends
▁statuts
▁glorieux
▁Ordonnance
▁descendant
jl
▁souci
▁Combien
apparition
▁abondance
▁Méditerranée
Pro
ete
▁ly
SION
ugés
encer
équip
▁mani
▁émis
Aussi
▁entret
▁tumeurs
▁enregist
exac
isez
▁Mel
▁lot
▁févr
▁légal
▁forcée
▁approuv
▁fermeté
abandonner
▁frontières
MO
dant
▁Sab
▁cha
▁purg
▁obtenus
▁opposée
intensité
domen
▁Sain
▁foul
▁Juris
▁testi
▁donateur
▁sensibles
▁ib
▁Maz
épuis
▁Trav
▁prouv
▁résolut
▁souffert
accomplissement
▁CAR
▁user
astres
observer
▁formellement
▁Pie
▁astr
▁toil
Toutes
▁forcés
▁placent
élévation
▁édifices
ser
▁Jos
dienne
▁contro
▁cendres
acquéreur
sans
▁accepté
▁minimum
▁affranch
dr
fran
▁mener
▁saisis
▁vallées
journ
▁saill
▁scènes
▁boissons
▁appartenait
rec
tems
▁gagné
criture
▁dispers
▁embarras
▁longitudin
▁contemporains
Parmi
assée
faire
▁mécan
▁publiée
onnements
▁cruel
▁vôtre
▁offert
▁droites
▁définition
▁ras
▁désol
pection
▁déposé
▁peindre
▁imprimer
▁médicale
▁garanties
▁combinaisons
RET
▁Louise
▁mécanisme
IA
amie
érit
ainsi
teaux
▁Henry
▁Consid
▁carbone
▁drapeau
▁néglige
▁Clermont
▁horrible
▁surfaces
▁représentée
▁dispon
▁reconnue
▁fournissent
▁Clo
▁gare
▁aperçu
▁tutelle
invention
▁cavalier
▁raisonnement
fils
abeth
▁Rapport
▁constituée
▁raf
▁som
▁énum
▁dynas
affaires
▁portions
▁fabriques
izième
▁Jusqu
Auguste
▁Faculté
▁dégage
archevêque
ueurs
▁aiguë
▁relevé
ératrice
▁pénètre
▁entraîne
RY
▁Neu
▁paye
empress
issaire
▁convaincre
gs
andrie
▁tribu
pellier
▁soumission
▁vérification
tère
épre
▁Vis
▁escad
▁italien
▁raisonnable
▁rétablissement
pices
▁bruy
▁plaies
▁réduis
▁restera
▁sensations
arl
▁Bes
irmer
▁sinus
▁assise
Institut
▁Indiens
▁visible
▁receveur
▁recouvre
▁défendeur
▁conversion
nu
IES
▁flé
▁futur
▁conduits
▁disposés
▁agi
▁tamb
engager
▁Molière
▁deuil
▁résign
▁efficace
▁entretien
▁orientale
▁van
▁fers
▁arrête
▁poussé
icilement
▁compagnon
iqu
dote
ical
▁absur
▁coeurs
▁ressor
▁berceau
▁faciles
▁gestion
gné
Avant
▁fist
▁avais
▁soirée
▁conjonc
▁supplice
▁Maintenant
▁airs
dinand
▁jaloux
▁intense
▁batterie
▁calcaires
▁éternelle
▁prédé
▁maires
▁treize
▁contenter
▁occasions
▁commencent
▁gentilhomme
eufs
droit
ouches
orifice
▁tribut
▁blessure
▁considérés
Di
déc
otions
ambition
▁conclut
Ordre
▁Banque
▁vouloit
▁sœurs
▁Strasbourg
▁volontaires
▁Ali
▁ramp
Article
▁purent
▁vieillesse
▁communications
ogue
éphal
▁empois
▁renvoi
▁pharmaci
▁Er
èbre
▁Aub
ilités
▁publia
oct
Anne
Mont
inage
▁tremp
▁décida
▁tables
▁souffrance
heureusement
;/
▁Chré
▁dura
▁fuit
▁joug
adresser
▁augmenté
▁manquait
▁capitaines
ignore
▁libér
▁clinique
▁document
▁travaille
▁Ol
écoul
▁aisé
▁épée
▁empêch
▁poumons
infection
▁attribué
▁desdites
lia
▁Sen
▁détermination
iii
mile
▁confid
illaires
cho
avoue
▁Guerre
▁provinci
▁suspension
accusé
▁pâtur
enfance
Off
chemin
▁PARIS
▁fermé
▁douces
▁chanter
▁mobiles
établit
▁Quatre
▁forcer
▁rapides
approbation
▁Bro
▁Péri
▁alco
▁plonge
▁dénomination
▁sérieusement
tia
▁eus
ésies
alogie
tibles
▁renonciation
::
écorce
▁collab
▁simult
usufruit
▁offices
▁instruit
Her
▁Dém
▁Rev
forme
aperce
▁scell
hygiène
▁historiens
▁Cy
▁COR
▁coc
aitre
etter
▁plumes
▁prescri
tils
▁aucuns
▁bétail
▁autrich
▁notable
▁courants
▁stim
obstant
▁étudié
▁pensions
';
fiée
▁Temp
▁pitt
▁onces
▁contestation
▁Saxe
▁scep
onnais
▁Suède
▁amant
▁paras
▁ébran
▁pensait
▁grosseur
RAND
ater
Ouest
aigre
▁rives
▁défaite
▁antérieurs
▁avantageux
celle
▁adoptée
▁imposer
▁visites
▁raconter
▁gendarmerie
▁Moul
▁dépou
▁hiver
▁pompe
▁respecter
▁excellente
héréd
▁lamb
▁élus
▁riant
▁solde
▁valet
▁Partie
▁transmission
onel
olphe
▁soufre
▁étoiles
hydrogène
▁compatri
obéissance
▁désordres
iert
ster
▁Bra
▁Lec
▁tol
inthe
▁vision
▁graisse
▁statues
▁publicité
gh
tl
cell
▁Nor
arités
▁pleurs
▁applaud
▁favoriser
▁antérieures
▁Ray
TABLE
rophie
animaux
▁Cir
▁pensi
▁chimique
▁indiquées
▁séparément
GES
▁UN
▁vesti
▁marier
▁salles
▁occupés
▁expresse
▁inconnue
▁portaient
▁coloration
▁frim
▁lomb
▁loup
▁bâton
▁fonci
▁Soleil
▁quarts
▁Flandre
inventaire
ERN
Paul
▁affi
▁coiff
▁ombre
▁Temple
▁bizarre
▁condamne
▁cristaux
▁occasionn
▁parcourir
▁communément
ATH
ial
▁sect
▁reins
▁poison
▁manifestations
END
cas
ppes
▁flu
oisse
uissier
▁perdit
▁restant
▁considérablement
èn
▁impar
▁réuss
▁séances
▁triangle
instr
▁Sant
quette
reinte
▁Jupiter
▁réussir
▁donnaient
Ath
Ibid
▁Die
▁guéri
▁permit
▁emplois
▁légende
▁reprise
▁attendait
▁disciples
association
▁xv
▁nèg
acier
ingén
▁Bulle
▁dirigée
entreprise
▁monseigneur
ân
admet
▁manœu
▁maxime
▁divorce
▁souveraine
▁Inf
arbres
▁jaunes
▁talents
▁testateur
ATI
appe
rogé
▁riz
▁déjeu
▁payés
▁céleste
▁appropri
▁argument
▁secondes
▁ressource
AMP
OME
▁Gi
▁Réf
▁lef
▁roues
▁tente
▁rivage
▁signer
▁comporte
explication
▁ë
ulli
▁étage
▁indemn
▁répandu
▁ressemblance
▁incontestable
UNE
▁osé
▁conve
ccident
▁Mémoire
▁catégories
gul
▁Fleur
▁naquit
▁Archives
▁ceinture
▁prédécess
midi
▁leu
▁ferv
opérer
▁cuisine
▁Reims
▁remit
itoyens
orateur
▁micros
▁dixième
▁impré
▁noyau
▁cadavre
▁chaînes
▁théories
▁reproches
érin
▁Eur
▁prime
▁courtes
▁parvint
▁saillie
▁prairies
▁prém
incendie
▁Maurice
▁balance
▁regarda
Alexandre
▁difficilement
mn
▁vieil
visible
▁légers
▁clôture
▁douteux
▁pulmonaire
▁explications
'"
ga
▁Bu
encl
tife
▁boit
▁annex
▁brûler
▁soudain
▁consistance
Arr
sont
irrit
écriv
▁lames
▁Langue
▁Grenoble
▁comprise
▁soutient
▁vérifier
▁possess
▁statuer
▁pourrais
hypoth
▁Bonne
▁grecque
▁retourna
▁chimiques
:,
▁ê
▁lâ
▁Sup
actif
▁sûre
▁Musée
▁épousa
▁enfance
▁marquer
▁sembler
▁sortent
▁Chamb
▁insol
▁orgueil
▁fraction
dée
hom
▁Livre
▁Russes
▁regardé
▁continuellement
▁coupé
accorder
▁courtis
▁sentimens
alimentation
oïse
▁ill
entiel
histor
emparer
▁dégrad
▁adopter
▁désastre
▁périodes
▁présomption
▁Os
lors
▁Ste
itifs
▁aîné
▁viendra
▁cellulaire
▁délibérations
▁Rac
▁bœuf
▁cherchait
▁chêne
▁recue
▁étonné
▁mériter
▁provient
▁espérance
▁pois
▁surp
ibilité
▁formid
▁occupée
rangement
▁professionn
oce
gies
▁lob
ogène
▁raff
▁accusé
▁fonder
▁supers
▁formalité
▁franchise
▁Pa
cades
ystéri
▁nuits
▁bourse
exécuter
▁session
▁troupeaux
▁Romain
▁enchant
▁maniere
▁moutons
▁consacrer
.°
table
▁ambition
▁hypothéc
▁rencontrent
;?
ÉG
▁nie
▁confié
▁Clément
▁antiques
▁immenses
▁nationales
▁he
Avec
▁folle
▁validité
▁cérémonies
▁travailleurs
▁lève
vergne
▁sachant
neau
▁Dés
▁séparée
▁enveloppe
▁héréditaire
▁voc
▁levant
▁situées
▁Poitiers
▁gouvernements
fon
ulc
▁ès
sace
▁Jud
aillé
▁rôles
▁crains
▁refusa
▁Auguste
▁Champagne
▁Coll
Joseph
▁Madrid
▁renvoyer
▁réserves
▁thérapeutique
oua
innoc
▁roue
▁Avril
▁déguis
irai
itale
estres
▁lâche
▁dégoût
▁fermes
▁Princip
▁remèdes
▁Amérique
▁démarche
▁jalousie
▁occupent
▁reconnaiss
▁contradiction
▁Rab
▁merci
▁détruis
▁disposées
▁physiologique
Ur
diff
▁rém
enoit
extrême
▁puissants
▁régiments
▁judiciaires
OO
ito
▁Caisse
▁vignes
▁cellule
▁fraîche
▁substituer
Océan
agine
articul
▁Philos
▁croyant
▁potassi
▁pittores
▁transmet
▁semblaient
▁intermédiaire
ifier
▁chers
▁briser
admettre
audience
▁solutions
▁prétendent
▁personnellement
ev
élan
▁aider
▁cordes
▁milles
▁attenti
▁Ta
▁coïn
ulture
▁apost
▁enter
▁graine
▁corruption
trée
▁thor
▁tache
▁approch
▁médicament
▁Dictionnaire
gi
quie
▁Jehan
▁fixes
▁victor
▁perspec
apparence
▁compliqu
▁fréquente
▁fermentation
iète
▁révol
alistes
ctoires
▁parles
▁convent
▁pensons
▁distances
▁applications
▁volontairement
loc
idon
▁Déf
▁Rol
arrive
▁Attendu
▁extérieures
mt
oM
amus
veil
▁Lig
petit
▁plén
▁Syrie
▁harmon
▁atmosph
▁couteau
▁obligée
▁soluble
▁Montpellier
eni
incon
▁clos
▁frot
▁pref
▁tira
embourg
▁Observ
▁charmes
▁juriscons
Inf
UBLI
▁sie
▁sentit
▁arrivant
▁poursuit
▁prouvent
▁conformer
nr
▁SC
▁ART
avoient
royable
▁cornes
▁demeura
▁satisfais
▁fuis
▁neutr
▁patrim
▁Recueil
▁Sentence
▁maintenu
▁engagements
:.
Gu
▁Ét
ormée
▁annonc
Seigneur
▁confier
▁humains
▁trésors
▁contenait
curi
▁Garde
▁nomin
▁géomét
▁soupir
▁tendant
▁collègues
heim
▁unité
Charles
▁Suivant
▁assisté
▁menaces
▁préférable
eld
▁ext
▁qualifi
arche
▁cieux
▁Orient
▁reconnus
▁métallique
réc
▁œil
▁subst
appeler
▁exprès
▁reçues
▁guerriers
▁reproduction
▁réclamations
▁philosophique
Vi
isa
▁étoff
▁mortel
▁Augustin
▁croyance
Ordonnance
▁théologie
▁magnifiques
Administration
ID
..,
kin
pré
uier
▁Cou
▁hau
éditions
▁comport
▁vicomte
▁singulièrement
▁armé
▁zinc
▁Prussi
▁médiocre
▁déterminées
rix
alys
propre
▁veuille
GER
▁Fort
uisson
▁vaill
▁Châtel
▁ignore
▁habiles
▁exécutif
▁grossesse
▁sympathie
cité
▁tau
▁profil
▁sanctu
▁sphère
lisabeth
▁chances
▁injections
▁AD
aile
eron
▁tax
▁habitude
▁officiel
▁Septembre
▁donnèrent
▁caractéristique
cia
auche
uyant
▁circ
▁inflamm
▁ouverts
apprendre
accusation
▁précieuses
▁substitution
Ec
enr
alter
▁coûte
▁pénétré
dications
▁aventure
rol
▁Fab
onnette
▁débats
▁cantons
▁desseins
▁ténèbres
▁repousser
▁ME
▁PO
Bret
aphysi
▁promenade
▁multiplier
urne
▁crim
aîtres
▁Souvent
▁cuiller
▁comprends
-;
utée
extrait
illiers
▁ardent
▁cercles
▁Ir
▁Den
▁Mos
▁VIE
▁exerç
lemagne
ouchure
▁fleuves
▁tempête
▁extraits
BERT
acon
▁Sic
▁Merc
emploie
horreur
▁Chevalier
ôn
▁cn
ottes
▁prisons
▁éclairé
▁récoltes
▁Mass
▁minuti
▁fréquence
▁contestations
envie
tissent
▁massac
▁défenses
▁latitude
▁revanche
▁cherchant
▁trouverait
▁commissions
▁décomposition
ala
ena
▁Ve
vais
élon
▁cui
▁lus
aumes
▁abré
▁régie
▁créances
▁Lieutenant
▁négligence
▁consolation
Us
▁palp
▁incom
▁monts
▁ouvrit
▁verrez
▁digestion
▁indépendamment
▁Aj
accroissement
rose
▁Mex
effor
▁brouill
▁Jésuites
▁régularité
▁lap
ctures
anciers
▁Sauveur
▁modifié
▁indiqués
LU
eck
assuré
▁germin
▁charmant
/.
▁lié
▁tas
agées
▁conti
▁produi
▁Tribunal
▁négociations
ORD
▁Gabri
onnaire
ractions
▁furieux
▁salaires
▁carbonate
▁feulement
▁longuement
▁intéressante
▁ei
ènent
▁flét
inière
▁pattes
▁jaunâtre
▁agricoles
▁gouverner
ONN
écart
▁Trop
illers
▁Légion
▁tue
érard
▁Brun
▁miel
▁infailli
▁appellent
▁généreuse
▁déplacement
▁contraventions
Amb
▁Hor
▁aum
▁péc
▁accum
▁cadav
▁roche
élèvent
▁cachet
▁notion
▁dispens
▁devraient
▁disparaît
▁rapportent
▁professeurs
▁barbe
aptiste
▁générosité
CK
élite
auroit
▁Raoul
▁réveill
▁temples
▁mouvemens
LAS
uies
▁Sont
▁épid
▁inond
▁exécutés
▁tentatives
▁discussions
omet
▁unis
▁conducteur
▁if
tere
aleine
▁chaire
▁ajoutant
TO
▁Croix
▁croir
▁tension
▁troupeau
▁introduire
xie
embar
▁golfe
▁pendu
▁tress
▁restri
orient
▁conte
élément
▁entrant
▁recueilli
ift
▁ol
▁lass
▁monté
▁dirigé
▁paysan
obscurité
▁vivacité
acceptation
▁comprenait
""
▁Fre
▁Ind
▁Nul
▁cort
▁entrent
▁lesdites
▁positive
▁vainement
rap
▁Mr
oplas
▁banc
▁Encore
▁cartil
▁adressé
▁marches
architecture
▁corne
▁Décret
▁répugn
▁densité
▁réduits
▁tribune
▁enceinte
acquisition
▁successives
cheur
▁foncé
▁invoqu
▁procède
▁immobile
▁Loy
riens
▁Gaule
▁enlève
alliance
▁essayer
▁Ferdinand
▁Mademoiselle
▁bienveillance
avril
envoi
émont
▁précieuse
▁témoignages
ovi
ella
inus
tera
▁BAR
▁acad
artère
▁carrés
▁esclave
▁ancêtres
▁enseigne
▁fontaine
▁harmonie
▁tuberculose
▁publiquement
▁We
▁aise
▁baie
▁basses
▁teneur
▁varier
▁pleines
Eu
issé
abandon
▁achevé
▁rédact
▁fratern
▁méridionale
aillir
ineuse
▁retir
▁restés
harmonie
▁aperçoit
▁discuter
▁Dec
ameau
▁CHAR
▁arabe
▁publiés
▁tragédie
▁munitions
▁osc
▁visc
▁celuy
▁tapis
▁coupes
▁fondateur
▁verticale
▁adversaire
utile
▁POUR
▁étin
▁poumon
▁miséric
▁potassium
▁dépendance
Br
▁Mol
▁rie
▁blas
▁lave
▁embar
▁fraud
▁prends
▁verser
▁écrites
▁femelles
▁rotation
▁vieillards
mitt
▁lanc
▁cloche
▁périph
▁demandant
▁délicatesse
ynx
▁OR
▁abb
isseur
▁musée
▁remédi
omatique
▁diviser
▁cheminée
lac
lim
▁Ret
▁féd
▁Outre
▁flanc
▁nonobstant
▁individuelle
OUL
emport
▁néant
dal
liv
▁DI
▁pt
▁tam
▁grès
grande
▁Condé
▁pairs
▁annoncer
▁épouvant
initiative
▁cimetière
▁dépendent
▁plate
écriture
▁fournis
▁Chartres
▁Seulement
▁provisions
▁Gil
▁apl
abdomen
▁bruits
▁urines
équation
▁exprime
▁bancs
▁volup
▁prenez
▁tendres
inde
▁ung
▁Lomb
éloigner
▁exposer
▁ladicte
▁Aussitôt
the
pens
▁Lar
▁immorte
▁injuste
▁regrets
▁Décembre
▁maritimes
▁extérieurs
École
▁duché
▁humble
▁liaison
CÉ
Con
▁gêne
▁égyp
▁FRANCE
▁martyr
▁revend
▁montrait
quo
▁Pt
▁insi
▁libert
▁commode
▁toilette
écoulement
CAR
ifie
▁Bur
▁Pét
▁Soit
▁Heure
▁lampe
▁métrop
▁miracle
▁remplacement
ENE
Loi
ork
▁fug
odeur
▁applique
▁trahison
▁apparente
▁populaires
▁Acc
▁hât
ormés
▁Vall
▁voil
▁Chinois
affirm
▁concour
▁poétique
▁retourne
▁sûrement
indication
dière
▁Caen
▁gagne
▁archives
▁subordonn
SU
▁rus
▁sap
▁brise
▁fermée
▁humides
▁délégués
▁allemands
▁révolutions
PR
illa
effort
▁manie
emprunt
▁éternel
▁subsister
▁dilatation
oste
▁Mat
▁Rhône
▁flancs
▁sacrée
▁estoient
▁éloignés
aïs
COUR
agas
rapp
▁Tre
▁pant
▁vivante
▁présentes
▁rapporteur
dc
lius
▁Var
ièvre
▁aval
oiseau
automne
▁donnez
▁relève
îme
IQUES
terie
▁huile
▁obéir
▁vaches
▁divisée
▁doubles
▁attitude
▁disoit
▁oiseau
▁tarifs
▁risques
▁ouvertes
▁reconnut
▁latérales
▁provision
▁chancelier
▁descendants
NO
TTE
▁levé
▁État
▁amène
▁frere
▁gener
▁courts
intendant
▁seroient
▁minérales
▁territori
▁archevêque
▁~~
▁adv
▁ing
épreuve
▁calice
Philippe
▁comptant
▁renommée
VAL
▁joué
issable
▁engager
▁personnels
▁accessoires
▁MAL
▁Boss
▁sacrés
▁rassembl
ln
fli
▁let
▁vus
époux
▁Prév
▁doub
▁mépr
▁doive
▁débit
▁fatale
▁détroit
▁féconde
intermédiaire
▁antérieurement
rr
for
▁alter
▁cuire
▁Rennes
▁ferons
issantes
▁découvre
▁fonctionnaire
OIR
TRES
roce
▁raif
▁fondre
▁rempla
▁barbare
URES
▁Viv
élène
quêtes
▁chauds
▁labour
▁plaint
▁dégager
▁suffire
▁permettait
▁renfermant
Ep
▁goû
▁racc
▁pleurer
▁prudent
extension
▁commander
▁Luxembourg
▁hypothèque
▁occidentale
▁Boh
▁Disc
▁phil
▁ralent
▁Pyrénées
▁CHAP
▁pêch
▁Puiss
▁maman
▁dément
▁diffèrent
▁Sar
▁Bull
▁meurtre
habitation
emplacement
livier
▁Havre
▁Pline
▁posée
▁peintres
▁modération
▁arrondissement
ima
Royal
▁bâtir
▁retenu
▁congrès
▁sécrétion
ffes
▁escar
▁tubes
échelle
▁échappé
▁attachée
▁déclarée
engagement
lige
tême
▁und
▁Grâce
▁anges
▁auffi
▁Bureau
▁amendes
positions
onses
▁Four
▁altér
▁artéri
▁monstre
▁possesseur
▁blâ
étable
▁infid
échange
▁signée
▁légumes
▁préjugés
▁contribué
chait
▁grêle
olement
▁joyeux
invasion
▁expliqu
▁collines
▁recouvrement
tell
estim
amines
atelier
▁fusion
▁Février
▁surveill
▁receveurs
▁engagement
▁manifestation
rade
▁XIX
viers
▁inex
▁Platon
▁prévus
▁exprimé
▁mobilier
sin
▁Fi
DENT
eulx
haut
▁Lap
▁Mis
assure
▁ferez
▁chance
▁compas
▁durent
▁foyers
▁mourant
▁ménager
▁intervenir
▁expéditions
▁intervention
▁filet
▁herbes
enceinte
▁Hongrie
▁Cardinal
▁entourée
▁réciproquement
':
▁Fa
▁entières
▁réquisition
▁Albert
▁confiée
inj
gard
▁DEUX
▁viole
Bretagne
▁prendra
▁voulais
▁détachement
clé
doc
▁gig
▁top
▁Land
▁amor
empêche
▁parlons
▁incomplè
entretenir
▁Capitaine
▁échantill
▁paternelle
▁industriels
▁ressemblent
ING
▁tn
▁axe
▁subdi
▁amours
▁Parties
▁autorisés
▁composées
▁demoiselle
▁Ps
écrit
▁Août
▁balle
▁moulin
▁vienne
▁monnaies
Arg
ÉTÉ
brer
itus
ôtes
▁Ceci
▁Edit
▁gibier
▁mouton
▁chargées
▁authentique
oif
ANNE
▁Cro
étiques
▁dynastie
▁revenant
▁volontés
▁produites
▁bienfaisance
!!
oye
▁Go
jets
▁Bor
▁tét
▁Prof
▁gages
▁peaux
▁avances
▁ruisseau
exactitude
enthousiasme
-*
GN
cht
SCÈNE
ologue
▁Aucun
▁sauvé
▁chimie
appelait
exprimer
▁ennemie
▁affirmer
▁immeuble
▁passionn
▁présentée
▁contracter
iï
vol
▁laï
roger
Algérie
oissons
▁prérog
▁donnons
▁candidats
▁spirituel
▁terrestre
▁variables
▁surveiller
FIG
erd
André
faits
urait
▁Cord
▁coff
▁fili
▁orné
▁monop
▁sceau
▁monarch
▁consenti
▁manœuvre
▁lits
▁ainfi
▁invari
▁bouillon
▁illustres
▁personnelles
▁convenablement
▁▁
zer
▁Lut
▁exh
▁allusion
▁consacrée
▁sar
berté
jette
▁bond
▁offrant
▁séparées
▁sauraient
▁indépendance
▁ft
fiés
ièmes
▁ther
ilière
▁fatal
▁garni
occupation
▁directeurs
LL
Aub
exemp
▁Chab
▁doré
▁fauss
▁figurer
▁mesurer
▁énormes
Arm
Vers
▁Rod
▁omn
▁pui
giques
▁lourd
▁livrée
▁triple
▁falloit
▁Madeleine
▁pratiquée
▁subitement
▁présentation
ho
▁Pou
▁veill
▁mérité
▁artères
▁notables
▁teinture
▁tenaient
▁tyrannie
▁OB
siez
eline
opère
▁siff
infini
▁fatigu
▁revêtu
olérance
▁tendent
hypothèse
▁cultures
▁lumineux
▁syphilis
Id
ÉR
▁boîte
▁fosse
▁marié
▁congré
▁assurée
▁vigoureuse
▁contraction
vième
▁sati
▁invol
ombrables
▁........
▁confirmé
▁créature
▁querelle
▁précèdent
/&
iis
ilde
▁chinois
▁choisit
▁fameuse
▁formaient
▁reproduis
PER
asie
cible
▁cria
▁tirée
▁enrich
hérédité
▁permanente
-&
ago
lém
ETTE
▁taxes
▁emporte
▁indigne
▁quotité
▁transformer
Chap
ussion
▁rêver
ATE
▁Em
▁roc
▁encl
istère
▁joues
▁opposées
▁déterminés
▁disparition
Gr
▁œ
psie
aissé
▁Hugo
▁latine
▁métalli
▁membranes
▁mandataire
▁comprennent
Cal
oya
illo
loge
▁kys
▁Vern
▁vacc
▁corre
▁infir
▁renon
▁adroit
▁tirant
▁fâcheux
▁royales
▁remplace
▁fantaisie
▁décoration
▁seigneurie
▁transporté
▁’
▁CONT
▁frappant
▁jouissent
▁renouveler
PI
▁AC
▁Cli
▁hoc
▁Chan
▁paire
▁horreur
▁insensi
!,
-:
ece
sent
▁Eff
Amour
▁citad
▁mêlée
▁empereurs
▁légataire
▁matérielle
▁Fam
▁Fau
▁rén
▁naît
▁naiss
▁quasi
▁Julien
▁couler
▁luttes
▁mienne
▁écuyer
▁magasin
endraient
▁chirurgie
▁portraits
▁ultérieure
ford
▁Pin
afaud
outons
▁coule
▁Eglise
▁matiere
▁multiples
électricité
cm
vée
cade
ignons
▁grace
présent
▁Prussiens
▁résultent
oui
▁Lille
▁Province
▁existant
▁fauteuil
▁Charlemagne
réh
orté
▁abcès
▁genou
▁phrases
▁disaient
▁abandonnée
▁concessions
hn
IEU
OUIS
cycl
esch
rovis
▁Magn
▁dévi
rimant
érants
▁presqu
▁suivis
▁développé
▁inquiétude
alm
ulus
chevins
▁lutter
attaquer
▁courses
autrefois
viol
▁Men
▁més
astro
▁mien
avocat
▁Chron
▁fémin
▁obtenue
▁brumaire
▁plaisant
▁successions
▁associations
▁nage
▁convoi
▁refroidissement
▁ep
▁MIN
▁nourri
▁inspiré
interromp
▁globules
▁consentir
▁Déclaration
OLI
itur
Anjou
▁laté
▁opéré
▁Tandis
escalier
▁nerveuse
▁habituelle
▁débarrasser
adier
endrai
▁grise
exprime
▁vicaire
▁immédiat
XI
rales
▁CONS
▁rejeter
▁étendre
▁pauvreté
▁rebelles
▁déchéance
OND
▁Loc
▁pari
▁cuisse
▁volati
▁suspect
▁Personne
ÉRA
▁Mans
olombe
▁Pères
observe
▁couver
▁garnis
▁peintures
gar
affai
▁Troy
▁Inter
▁client
▁arrêtée
▁procure
▁proposa
▁sergent
▁boulevard
▁reprocher
▁générations
bar
IGNE
ency
▁Moïse
▁asile
▁charte
▁isolés
▁voiles
issaires
▁dissout
▁gentils
▁intervalle
▁protecteur
/'
▁çà
étal
▁Vau
▁commerciales
lr
▁dt
ithéli
▁charp
▁centig
▁Ensuite
▁entiers
▁suffrage
▁entrepris
ado
zig
avie
aîné
olles
rente
▁Ordonn
▁garçons
▁positif
▁chapitres
▁conquêtes
▁appartenir
▁convenables
VES
▁Nil
▁ébl
ollon
ébran
enquête
rimerie
▁inverse
▁dépasser
▁expliqué
▁traversé
▁distincts
Cr
auront
▁baiser
▁vigoureux
fte
▁Tunis
▁galop
▁moine
▁polyg
▁sache
▁acheté
▁brusque
▁Boulogne
▁couvertes
▁dépendant
▁hypothèques
▁râ
▁maç
▁Chef
▁tués
▁Quels
étermin
▁Francs
Monsieur
▁directes
▁hectares
.&
AMB
▁rc
Bien
▁Syl
istote
▁battu
▁animale
▁fièvres
▁respirat
▁solidité
▁patriotisme
isph
escad
mberg
▁Corn
▁quint
▁détent
▁boucher
▁attribuée
▁identique
▁mémo
▁arrondi
ague
▁rein
octobre
▁rachat
▁égards
▁prompte
▁marchant
Dé
▁câ
▁ip
grav
▁Soc
▁cél
alion
▁Gaul
▁ange
antine
▁froids
▁insolu
▁usines
▁experts
▁méritent
▁étendues
▁influences
▁convulsions
▁franchement
jf
dies
▁véc
▁mêlé
▁démon
▁adresser
▁fixation
▁miracles
▁épaisseur
▁chroniques
▁connoissance
anl
▁Loix
▁fière
▁tarda
▁casser
▁continué
▁souriant
▁spécifique
OLU
igu
▁Dun
ensis
▁baux
▁motiv
▁avancée
▁murmura
▁chanoine
▁franchir
▁communique
▁vomissements
▁AV
▁sys
▁cann
▁déco
▁barre
▁danse
▁germe
▁Comptes
▁colline
▁légitim
▁mystères
▁naissent
▁Quelquefois
pus
acha
▁fub
édifice
▁Celles
▁cérébr
▁imposée
▁bouillir
▁honnêtes
▁étroites
▁sacrifier
▁républicains
ADI
cend
▁Cri
tèrent
▁impose
▁matrice
▁démission
▁métaphysi
▁permettant
erme
exag
▁Hab
outch
rlande
▁tombée
▁original
▁pratiqué
su
▁amus
▁annuel
▁recour
tinction
▁Turquie
▁travaillé
▁interprétation
dt
Jus
RAPH
ignan
mbert
▁Secr
ouvoir
▁Hugues
▁assiég
▁virent
issances
▁localité
▁démonstration
▁représentations
TIS
AGNE
▁lat
acent
▁Corne
▁seuil
▁Europé
▁affecté
▁pointes
▁affaibli
▁répondait
▁pleinement
interprétation
gnes
Union
achat
ontre
oupes
écrie
▁clim
▁élarg
▁souper
ralement
▁anéanti
▁édifice
▁technique
ROU
ÉES
▁fray
▁noix
abelle
raison
▁mêler
▁tirés
▁vache
▁démontre
▁mensonge
aro
gli
éni
▁fc
igle
▁Por
▁nauf
▁idéal
▁collat
équipage
▁Afrique
▁compromettre
Cor
emar
▁Ram
anées
▁timb
▁redou
▁voeux
odiques
accident
▁ornements
àn
hes
toit
▁future
▁vendus
▁Anglois
▁exigences
erb
▁Ul
neaux
ulente
▁louer
▁sérum
▁Chemin
▁chante
▁opposés
▁persuadé
▁prélimin
▁accomplir
▁autorisée
▁appartement
Entre
omère
amorph
liques
▁Ayant
▁domic
▁baptis
▁calmer
▁associé
▁scrutin
▁composer
▁victoires
▁conservent
▁superficie
▁médicaments
▁transmettre
▁indépendante
réf
résil
▁lacs
▁paff
enlever
▁sultan
▁maximes
assadeurs
▁punition
▁réformes
▁précipite
CHES
lisse
▁jufqu
▁récits
▁consoli
éloquence
oton
▁Jou
tieux
▁remords
▁agissant
▁extrêmes
▁ganglions
▁sanctuaire
▁Mas
▁ferr
▁herb
▁muti
▁découp
▁offres
▁recevait
▁classique
▁paroisses
accouchement
▁possessions
opt
▁It
haël
▁Alb
▁Rau
▁fumier
▁indispensables
▁aust
▁justi
▁river
augmenter
▁Beaucoup
▁analogie
▁approche
▁auroient
▁connaissons
Ie
icité
anches
uffisance
▁faisceau
▁prévaloir
▁prononcées
AUD
▁puri
▁pèse
adiers
▁dégén
▁restitu
▁muc
▁Carth
▁causa
▁gross
▁merve
▁chaise
▁minces
▁déjeuner
▁despotisme
dics
ride
aïque
▁durer
▁pleure
▁suspendu
▁métalliques
▁Coch
▁gonf
▁versé
▁perdus
▁espagnol
▁maturité
▁muraille
▁regardent
inqu
tius
unir
▁sed
accès
ardon
▁Serv
▁chœur
▁payée
▁prose
▁verse
▁odieux
▁provoque
exposition
cro
Ange
▁mène
▁réels
▁fossés
▁peutêtre
▁remplies
▁remédier
▁réponses
▁littéraires
▁Vu
extra
puiss
êches
▁COMP
▁âges
▁Phili
▁pensa
▁confes
▁embrasse
▁feuillet
▁restreint
INT
▁jetant
▁limitée
▁craintes
▁Communauté
▁sen
▁habite
▁resser
▁retenue
▁succéder
▁paupières
▁prolongée
JU
uli
▁More
éniens
▁belge
▁fable
▁prêté
▁complé
médiaires
▁affectés
▁soutenue
▁diligence
▁suffisent
▁élévation
▁dramatique
▁forteresse
FA
▁cup
▁mord
tillon
▁spirituelle
▁administrations
dan
gres
arbit
▁Gall
▁verbe
▁Egypte
▁Peuple
▁imposé
▁négliger
veté
▁gon
▁bouc
anneau
▁énonc
▁ambiti
▁dormir
▁lourde
ertitude
▁Requête
▁dépêche
▁nuances
▁corriger
▁tranchée
mel
▁quam
▁intrig
▁autorise
▁dévotion
▁Directoire
▁abondantes
vit
▁Gas
▁adap
▁confiscation
Mi
▁piqu
resses
▁crier
▁farde
▁forma
▁plâtre
▁réconc
▁vinaigre
▁mystérieux
▁protestants
//
Ses
Chez
▁niv
▁consécuti
▁apercevoir
▁distinguent
▁administratif
▁Fe
▁Bis
▁ond
▁monta
▁fragment
▁altération
▁bœufs
▁dirons
gyptiens
▁annoncé
▁pasteur
▁poussée
▁cadavres
▁nuisible
▁totalement
▁cis
▁ejus
▁syll
▁vifs
▁chevel
▁Holland
raitement
▁connaissent
▁préparations
▁rigoureusement
amme
▁Bart
▁Genre
▁tuyau
isseurs
▁couché
▁réglée
▁épreuve
▁éloignée
▁proviennent
▁cultivateurs
▁BE
▁MO
▁Berg
visions
▁maigre
▁arracher
▁funestes
▁conférence
▁responsables
Ac
APP
VER
quam
vide
▁BOU
▁Ion
▁fruc
▁décad
▁Cicéron
▁Bulletin
▁septième
▁nuisibles
▁ouvertures
!&
▁pond
▁péti
ancier
▁Eugène
▁formait
▁Souverain
▁commandait
remp
▁sonde
▁éteint
▁sanguin
▁habitations
▁Sé
▁Tab
ander
ousses
▁grandi
▁Marquis
▁galeries
▁demeurent
▁sérieuses
▁défenseurs
Cf
ariat
▁pert
temens
▁Signé
▁brûle
tilités
▁moteur
▁chargea
▁climats
▁négative
▁détourner
▁républicain
ÉRI
porte
▁lier
exerce
▁arros
▁colons
▁foudre
▁équival
▁manufactures
dun
ondes
▁Blanc
▁DROIT
éditeur
▁Arrêts
▁prélat
jt
înt
ellé
ussy
orrag
ommode
▁courut
▁miroir
▁pluies
▁sortis
uissiers
▁oblique
▁sincérité
eli
incl
▁Sév
tinct
▁périls
▁rentra
Ca
mir
▁And
▁ips
Notre
▁lard
ington
▁débat
▁attrib
▁régner
astiques
illustre
▁Commune
▁pontific
▁violentes
▁distingués
▁Cre
▁Mén
▁Plut
▁surg
▁estant
HISTOIRE
umineuse
▁empêché
▁récente
yph
acher
▁Colomb
▁enquête
▁préfère
▁Commerce
▁juridique
▁apparition
ilic
▁pige
▁adieu
▁pluvi
▁verres
▁douanes
admission
▁gracieux
▁penchant
▁réunions
▁supposant
ographiques
EM
▁soc
▁vul
utrich
▁Ordre
▁gland
▁Jér
▁sex
ector
▁Béné
▁juré
▁sanc
▁vign
▁décim
▁jurés
▁nourrit
Toutefois
▁paisible
▁prononça
▁musculaires
exig
▁dec
aries
deaux
illée
▁Lamb
▁Roger
▁lancé
▁Brésil
▁flammes
▁évidente
▁merveille
▁AUX
▁Mam
▁Mod
▁brav
▁veau
▁neutre
▁office
affranch
▁Bourges
ointement
▁inspirer
▁parvient
▁directions
▁perspective
voc
cius
ailly
érèse
mbourg
▁suffira
▁suppléer
▁-.
ASSE
peut
▁Ord
▁parlez
▁Bavière
▁curieuse
▁contracté
▁considérant
▁fonctionnement
jan
▁!.
umés
▁Dor
▁idi
▁tron
osition
original
▁attirer
▁pourpre
▁fatigues
▁quiconque
amélioration
IO
COL
▁René
▁amas
▁diaph
▁serons
▁commercial
iges
▁MATI
ersbourg
▁diminué
▁écarter
▁spontanément
not
urb
PARIS
fieurs
ièrent
▁rudes
▁nôtres
ociation
▁capsule
▁HISTOIRE
▁conférences
▁réalisation
▁enseignement
YS
iro
▁FOR
▁rival
antique
ineuses
▁aiguës
▁diarrh
▁disais
▁concilier
▁maintient
Rép
▁.'
▁Bâ
▁eti
aider
istement
▁Annales
atteindre
▁italienne
▁commençant
▁merveilles
▁patrimoine
;*
mai
outre
▁dise
▁flux
ensuit
▁Adieu
▁saine
cipation
▁romains
▁compatriotes
▁intellectuelle
auld
sive
éler
rigue
ticité
▁nomma
eussent
▁tuyaux
trations
▁recette
▁centaines
▁entreprendre
.~
oler
▁Bot
ustes
▁Guise
▁nièce
ilement
▁limité
▁négligé
▁saintes
▁accompagne
adel
ragon
▁Rest
▁Rose
▁stra
▁perdent
▁Bertrand
▁survient
kh
ymn
▁Pâ
▁avancer
▁finesse
▁souterr
▁éditions
▁salutaire
▁discrétion
als
iit
▁ea
▁Sim
▁Vin
▁clav
▁Vénus
▁dévor
étudier
▁porcel
▁renonce
ër
ët
▁SA
rins
êles
▁préju
▁Chancel
▁Montmor
▁aristocra
▁conventionn
zo
luc
▁SI
▁Cos
rants
▁exil
▁vaud
▁masque
▁fermiers
▁réelles
▁séjourn
▁contradi
▁recommande
▁association
▁comptabilité
fit
andi
▁Droits
▁céphal
▁percep
▁boisson
▁confirmer
▁pouvoient
▁prétendue
▁dissimuler
fus
mot
ona
dité
▁thy
inaux
ourer
▁crée
▁esse
▁orph
▁pins
▁incul
▁isolé
attitude
▁laissée
▁nec
ticul
▁Alle
▁Stat
▁Turin
▁rêves
annique
gations
▁tracer
▁saisons
▁occupations
bo
fp
EST
▁~'
ouci
ôles
▁bière
▁analyse
▁deviner
▁viandes
▁incident
uta
▁Ur
relie
résis
▁Stra
▁flott
▁holland
▁secrète
▁suivait
KI
Lau
èves
enfin
▁ains
▁quai
Madame
▁symét
conques
▁Action
▁délégué
▁suivies
▁sçavoir
▁rendirent
▁surprendre
▁Malheureusement
bois
foli
ignit
▁Aubry
▁Selon
ètement
▁explor
▁agissent
▁médaille
▁détention
▁trouveront
▁statistique
▁traitements
PRÉ
gnon
▁Cyr
▁intr
▁prévôt
▁rafraî
heureuse
▁exécutée
▁matelots
ropriation
▁conduisit
▁restituer
▁titulaire
▁horizontale
hou
émies
objets
▁flamb
▁noter
▁brebis
▁dépose
▁rendra
échapper
▁libertés
▁agréables
▁exemplaires
ILI
Nic
agi
▁?...
▁plis
Michel
▁aviez
▁mouch
ènement
▁Pascal
▁bonnet
▁existé
▁perles
▁rédigé
▁cherchent
▁ingénieurs
▁perpétuelle
ea
FIN
ava
Cela
▁quat
lemens
▁nuage
▁sieurs
▁tonnes
▁exposée
▁offrait
▁privées
▁minorité
▁criminels
▁devinrent
▁excessive
▁fréquents
lot
nies
èces
▁Ach
audit
gence
tifié
▁limp
▁ôter
érieur
▁serre
appétit
▁balles
▁dispenser
LIS
édée
▁charn
▁attest
▁caoutch
▁exigent
▁entendit
▁indiquant
nom
▁Dar
▁ble
humeur
équité
▁orifi
▁tourb
rérages
▁manche
orrhagie
▁redress
▁rendues
▁châteaux
▁Religieux
▁atteintes
▁brillantes
▁transaction
▁Ay
abst
▁deu
▁rit
ileries
▁Justin
▁achever
▁drapeaux
▁réclamation
rys
icule
▁oeil
▁niais
▁prédis
▁rétabli
▁variées
insuffisance
▁stipulation
▁annuellement
èt
ITS
bur
▁Six
phine
▁PRIN
▁plain
▁expose
▁filtre
assement
▁profonds
ih
SUR
▁nn
▁Monte
▁déclin
▁examiné
▁citation
▁suffrages
lais
▁Ham
▁Hel
berge
▁Noël
▁comtes
▁emporté
▁docteurs
▁confrères
▁nutrition
▁négociant
exportation
▁indication
Er
▁Sel
azote
▁COMM
▁lorf
▁Consul
▁Contre
▁Faites
▁demandée
▁intérieures
Pe
.,.
isait
▁hiér
éclair
▁vierge
▁monstru
▁pourvoi
▁écouter
▁démarches
▁molécules
ny
cue
âché
Opéra
▁paie
eurent
▁locom
▁Bossuet
excitation
▁accomplis
▁désagréable
iaux
illés
pirer
▁Maine
▁intra
▁garnie
▁soeurs
▁appelées
aliénation
▁répression
articulation
éléph
▁Tart
effroi
▁croît
▁savais
Baptiste
▁charrue
▁infortun
▁éclairer
▁complices
▁quinzaine
▁révocation
▁altérations
pu
OPH
uth
iode
ouin
▁Gau
▁eue
urées
▁croi
offrir
▁grecs
▁punis
▁sodium
▁tourné
▁Nouveau
▁conviennent
ifl
iod
èze
lois
éder
▁goth
emment
▁feraient
▁hautement
▁pathologique
rob
arius
ectes
▁diab
▁Arriv
▁massif
éremment
▁clauses
▁occupait
▁prolongé
▁enthousiasme
ùs
élix
elées
eneurs
▁goûts
▁parap
élevait
▁assises
esclavage
▁ajoutait
▁involont
▁restauration
oig
▁usurp
▁verté
▁Procès
▁paroiss
▁faisceaux
▁préserver
▁apparences
▁arrivèrent
aa
èdre
▁rail
avouer
gueill
▁retra
▁selle
immense
émotion
▁Autrich
▁déterminent
fo
avoué
▁Chal
▁bleue
▁cessation
▁intermédiaires
▁Mons
▁Couronne
▁compromis
▁locataire
▁conservateur
ep
▁~&
▁ÉT
exil
otal
▁GRA
▁avan
arnier
▁borde
▁Raphaël
▁Théâtre
▁paralys
▁repentir
▁extension
▁prescrire
▁présentés
DIC
esth
osons
▁Suis
▁avocats
▁injures
▁échelle
▁exclusif
▁huitième
▁élection
amer
▁Lav
France
Auvergne
▁passées
▁revendi
▁barrière
▁habitant
Amiens
▁avoué
▁exigé
▁ranger
▁preneur
▁inévitable
▁chlorhydrique
OH
IERRE
erner
▁suffi
ensions
▁infirm
▁subord
instance
▁exciter
▁sévérité
▁vertueux
▁donnerait
▁fossé
▁épousé
▁conquis
▁interrog
▁primaire
▁encourage
▁rappelant
▁incapables
▁quelconques
VEN
▁Ie
bras
itate
icelle
▁Médic
▁inexp
▁plaid
indique
▁pensez
▁baptême
dicataire
▁Sciences
appartient
embouchure
▁châtiment
▁décadence
▁entendait
▁parchemin
▁prolonger
▁continuation
Tr
▁rè
évac
▁Dev
▁abe
OLOGIE
ameaux
▁brisé
▁compté
▁instal
▁courbes
▁contraste
▁ressortir
appréciation
aii
uin
▁Past
▁commod
▁engrais
▁scellés
exclusion
▁lymphatiques
Em
Év
RIS
yme
rima
▁Ques
▁gain
▁secs
assaut
▁peste
ificence
▁comprit
▁exercent
▁publiées
▁rattache
▁accusation
▁chargement
▁liné
ertume
▁cessa
▁impôt
▁prost
assises
▁doutes
▁romans
▁froment
▁anglaises
▁conservée
▁miséricorde
▁postérieurs
emprisonnement
▁go
CHAR
ilié
▁sole
hésion
▁avouer
▁ardente
▁beautés
▁pourrions
▁essentielles
Li
ary
ACTE
▁Nob
▁nef
chers
▁bref
Quelle
▁Parce
▁sabre
▁dispense
▁mortelle
▁préposés
▁gendarmes
▁intermitt
▁produisit
▁solidarité
fiées
iture
▁cède
▁spas
▁surs
▁unie
OBSERV
assade
▁brune
▁pomme
▁incorp
attendait
▁contenue
▁persuader
▁communautés
▁économiques
Lac
eum
tide
▁supposé
▁Languedoc
▁dimension
▁trésorier
▁démocratie
▁caractéristiques
onom
uait
▁tég
▁Anton
▁croyais
umineuses
▁prévenus
▁scandale
▁contenues
▁administratives
▁rn
Haut
trés
▁Laf
▁oit
Elles
▁Louv
▁fisc
▁opère
aillard
▁prévues
▁liqueurs
▁constatée
▁légalement
cf
Ind
▁Sau
▁pec
fiant
uaire
tissant
▁Etienne
▁engagée
▁exploits
▁héroïque
▁télégraph
gon
effic
froid
emporte
▁formelle
▁soulever
▁ignorance
▁intellectu
lib
main
ordi
▁exal
▁mêle
encour
▁gaieté
▁adressées
▁déplorable
rô
tri
êcha
▁LET
▁Lit
▁oné
argile
accorde
▁Bailli
▁Racine
▁Roland
▁sables
isations
▁partielle
▁suffirait
▁préparatifs
▁Gro
▁fuy
oyant
tinent
▁cordi
DUCTION
▁concer
▁chaudes
▁commandé
▁pardonner
▁admiration
▁Im
oment
▁Cinq
▁Sept
▁Auteurs
▁numéros
▁Tuileries
▁renverser
isi
▁uu
chus
inti
pents
▁vigil
uleuses
▁appuyé
▁copies
▁ombres
▁empress
▁consoler
▁pénibles
▁subsiste
▁concourir
▁nerveuses
▁commerçant
▁continuait
/~
olli
▁Pere
▁aéri
▁Parti
▁excit
▁fixées
▁poussa
▁gardien
▁rappelé
▁saisies
▁vaincus
▁abondant
▁proposée
▁connaissez
▁Pén
▁haï
▁nus
▁vaine
▁majest
Pourquoi
▁informé
tend
▁Mul
orage
▁Sard
▁infinie
▁unanime
héritiers
▁courbure
▁dissémin
▁romaines
▁suspendre
ling
voit
▁Lan
▁pit
titue
Malgré
▁doubl
▁loger
▁confus
▁choléra
▁Marchand
▁habitent
▁autoriser
▁développée
▁formidable
oly
éon
▁Ha
POSI
Page
Trib
guen
eusse
lorer
éclai
▁Baron
▁façade
▁oscill
▁Virgile
▁métiers
▁évidence
▁manœuvres
▁surnature
▁législative
bal
ube
yon
celui
▁ducs
contre
▁Blois
▁essai
asseoir
▁Voyons
▁obliger
▁tambour
▁fraîcheur
,:
yz
obst
▁Tor
olées
oppose
▁simil
▁traum
▁Certes
▁précon
▁examine
▁honteux
▁montagn
▁rafraîch
▁déclarant
Eau
▁))
▁ui
roces
onnante
adoption
inconvén
instinct
▁accusés
▁Novembre
extraction
▁communion
▁traversée
▁CA
rore
opsie
▁SOCI
justice
▁persiste
▁dissoudre
▁rigoureux
Leb
iée
OGRAPH
▁laver
feuille
ulgence
▁éloges
▁paysage
▁Jugement
▁détruite
irritation
▁triompher
▁dépendances
▁participation
wn
hre
▁Sat
▁qua
TITRE
▁grille
▁Command
▁chercha
Celui
lotte
quons
▁gour
enneté
▁Thiers
acquérir
étendent
▁fondées
▁gigantes
▁répétition
▁ambassadeur
roux
▁cube
▁toux
▁vides
▁cornée
▁sembla
administ
▁Vincent
▁imaginé
▁laissés
▁pensent
▁illusion
▁porteurs
▁métamorph
▁théorique
▁témoigner
▁caoutchouc
▁valablement
▁effectivement
cli
CHAP
ader
lats
seau
▁cerf
▁fierté
▁pressé
ographes
▁aurions
▁partagé
▁bouillante
▁présidence
Az
OSE
agère
audace
estoit
▁dureté
▁violation
▁continuent
▁Sie
▁Blan
▁Mati
▁Merci
▁noces
▁régnait
▁combustion
▁physiologie
▁merveilleuse
▁parlementaire
cio
Loire
▁Lois
aillon
otique
▁Bibli
▁défect
▁frappés
inquiétude
▁délicates
rh
onges
raires
mifères
▁chlore
embarras
▁Edouard
▁créatures
▁plufieurs
▁solitaire
▁suffisait
▁vénérable
▁sympathique
RIB
aun
▁ral
lande
rates
▁bourge
▁infini
assassin
▁Quelles
▁succéda
ministrer
▁paroissi
▁réguliers
rét
▁/.
▁SY
▁ue
écile
ouvrit
▁pures
▁Lucien
▁rétréc
▁ravages
▁symbole
accomplir
▁contrari
▁cultiver
▁divinité
▁Testament
▁accordées
▁pesanteur
▁commencèrent
~/
cap
▁dn
bach
medi
trent
▁lant
▁oblong
▁poignée
▁observés
pic
▁Tib
▁homm
▁pulv
traits
▁inhum
endrons
▁unités
▁mouvoir
▁pupille
▁tempore
▁attacher
▁jugemens
▁trouverez
All
▁Mun
phonse
▁Fabri
▁anorm
▁tâcher
▁bouquet
▁mariages
▁conservés
▁distincte
▁tranchées
▁sollicitude
▁recr
▁invin
▁théor
Etienne
▁Arrest
▁minuit
▁pécuni
ardinaux
▁confirme
▁feuillets
▁solennelle
▁apparaissent
▁reconnaissant
▁classification
aub
cot
▁fœ
▁fît
▁ira
aston
terre
▁opini
▁résidu
▁apôtres
▁compare
▁justifie
▁supprimé
!'
,—
Ul
▁*.
évap
▁Cad
parti
▁John
▁cédé
Égypte
▁admira
▁défait
▁sèches
ouvriers
▁briques
▁intimes
▁varient
▁couronné
▁inconnus
▁marchait
▁nourrice
▁mortalité
▁prescrite
▁tubercules
▁gentilshommes
▁fortifications
aM
prin
faite
▁Poit
▁brit
▁imiter
▁renoncé
▁sommets
▁velours
▁entraîné
▁tombeaux
▁réunissent
▁désignation
gea
chons
amener
esseur
inclin
étence
oinette
▁Charte
▁crises
▁épuisé
onnaires
▁ordonnée
▁poignard
▁émotions
▁Provinces
▁complétement
GI
hr
losion
▁déduit
▁fusils
▁vertes
▁dragons
▁fertile
▁trouvai
▁pétition
Comp
ctif
amens
▁Cant
▁Cham
▁systé
▁verts
atrices
▁conjug
▁tirent
▁murmure
aco
▁■—
▁Enf
ampes
▁Leip
▁noct
▁rade
▁produc
▁révèle
▁cloches
▁mutation
▁organisé
▁répandue
▁servitudes
▁municipalité
efl
phal
▁Gent
▁Note
▁incur
▁lisse
anthrop
sterdam
▁gravures
▁indiquent
▁nouvellement
ERT
oic
éna
MONT
▁Pos
LIVRE
▁ador
▁silen
Georges
install
▁imprud
▁toiles
▁convoqu
▁infinité
▁moralité
▁révolutionnaires
js
ït
vag
fred
▁Baz
▁Der
▁MAN
empar
encore
▁bâtie
▁gomme
▁audaci
▁chassé
▁dissip
▁tapiss
albumine
▁Empereur
▁Demolombe
▁objections
,"
Rh
▁PL
▁arcs
▁mano
TIQUES
uitier
▁Italiens
▁provisoirement
▁alternativement
ky
ancée
▁Celte
▁cruauté
▁habituel
▁identiques
▁auxiliaires
▁pittoresque
CIP
▁ES
inoc
lieut
étoff
▁décol
▁recon
obliger
▁Esprit
▁glaces
▁present
▁quinine
▁hospital
▁citadelle
▁instances
▁solidement
lx
avor
aques
étain
▁Pass
▁voeu
animité
▁misères
oignement
▁chasseur
▁augmentée
▁commencée
▁glorieuse
▁constituant
▁nationalité
▁spectateurs
ANTS
bule
omon
posé
▁Tac
tinrent
▁glande
▁rapprochement
ooo
▁von
elier
▁doué
▁lament
▁levier
▁maréch
Occident
aiguille
huitième
▁pourrez
▁sombres
▁acceptée
▁approuvé
▁parcouru
▁redouter
▁étamines
▁évolution
▁industriel
-^
rus
glom
▁Idem
▁range
▁voire
▁épaisses
introduire
▁exploitation
▁renouvellement
brun
orem
rure
éman
▁Mou
▁pôle
▁conne
▁Royale
▁cavités
▁million
▁méchant
▁reculer
▁céréales
▁respirer
▁batailles
▁tendances
▁réciproque
▁Mét
▁adh
Chaque
ierges
ocations
▁lieuten
▁revenait
▁Corneille
▁pourroient
hs
qû
Alb
▁So
▁pria
▁cristal
▁bouteille
▁exemplaire
▁international
abat
ccès
esqu
tous
▁lam
illez
iforme
itoire
▁réside
▁déposés
▁modestie
▁historien
▁regretter
▁séminaire
▁améliorations
ICH
cond
tigm
▁Lag
rienne
▁Dieux
▁Manuel
▁promit
▁durable
▁Chapelle
▁boutique
▁diarrhée
▁prophète
▁Européens
▁hypothèses
▁Autrichiens
ÉD
éi
aignez
ignent
▁Bible
▁astre
▁bouts
▁insign
▁médical
▁banquier
▁arbitraire
▁manifester
▁Tan
issez
▁Greff
ectures
▁paquet
▁réservoir
▁violences
▁introduite
°;
océ
▁Dix
▁Lati
assées
▁ratif
urgence
▁absent
▁intent
▁irrévoc
▁frimaire
▁retrouvé
▁vainqueurs
▁Ordonnances
▁tranquillement
ey
hl
CIN
Hon
▁ba
ERNE
onais
▁Berry
▁issue
▁sourd
▁Véniti
▁necess
▁allèrent
▁camarade
▁germinal
▁imposées
appliquent
▁condamnée
▁cérébrale
▁diversité
▁mentionner
▁recueillis
▁Hipp
▁ayez
▁nagu
▁caress
▁Orléans
▁légèreté
▁patentes
▁remparts
▁bénédiction
▁complaisance
▁incessamment
▁cautionnement
AUT
quc
sac
êve
aisir
elins
épous
▁sunt
▁Maire
rétions
▁façons
anatomie
▁cultive
▁obscure
enveloppe
▁contraindre
enh
embl
ordes
▁auec
▁flag
ualité
▁lèvre
▁mendi
▁oreille
▁paradis
▁rentrée
▁guerrier
▁jésuites
▁observée
▁réfléchir
▁considérées
Bl
XL
zar
apes
rites
▁Mira
endice
▁Gaulois
▁foibles
▁étendus
▁stations
▁arguments
▁volumineux
▁confirmation
▁industrielle
jo
▁Tes
rimait
uations
▁décédé
émission
▁SECTION
▁hypothé
▁résolue
▁théolog
▁détacher
▁passèrent
▁sculpture
▁industries
▁simultanément
eler
▁Sin
arsen
▁ayons
▁éveill
estations
▁ministérielle
TIT
AGES
iefs
ttom
▁FER
luent
▁mors
▁Denis
▁aides
▁infrà
▁averti
▁gravure
▁mortels
▁remises
▁candidat
▁imprimés
▁mâchoire
▁secourir
Comm
tens
▁Séb
Trois
▁Vive
▁durs
▁meme
▁lenteur
▁troublé
▁fortifier
▁préjudici
CLE
ela
York
ceff
▁Lat
▁piv
▁porc
cyclop
▁prenne
aventure
▁besogne
▁fassent
▁soulève
▁vassaux
▁Toujours
▁transcription
▁ig
INES
iales
idéal
▁Adam
▁appos
▁repli
▁éloqu
▁Commis
▁appela
▁dirent
▁marteau
▁préféré
▁tournée
▁réservée
▁abandonne
▁remercier
▁empressement
accum
▁JOUR
▁COMTE
▁squel
section
▁aiment
▁enflam
▁gestes
▁végétal
innocence
▁contredit
▁étonnement
fî
xx
▁NO
----
joux
mper
Artois
▁offrit
▁convales
▁faisoient
▁quittance
nd
▁eo
aniel
▁cône
▁envi
ueuses
hétique
habileté
▁boutons
▁espagnole
▁permettra
▁Fra
alles
excéd
othier
▁chamb
antaine
▁ledict
▁Mexique
▁signale
▁compagne
▁éclairée
▁descendit
▁tolérance
▁inutilement
▁proportionnel
odie
▁West
▁cray
▁analy
▁Recher
▁douane
▁voleurs
▁célébrer
▁imprimée
accompagne
▁complications
LIN
▁ae
▁Éc
IEUR
conn
▁héré
avancer
▁essaya
▁Mahomet
▁assurés
▁apparent
▁sommaire
▁vêtement
▁indifférent
▁progressivement
odo
▁tacite
▁tirées
▁variés
▁ensevel
▁froides
▁acquiert
▁institué
▁propreté
absorption
▁maintenue
▁mathématiques
▁û
Mme
raël
▁Moy
▁bav
bleau
accent
▁Corse
▁coude
illette
▁pudeur
▁Maîtres
▁marqués
versement
▁assassin
▁révision
▁brillants
▁rendaient
▁répondent
▁soulagement
Rou
▁Acad
▁bagu
▁pror
Alsace
▁étiez
▁dévoué
▁tourna
▁Concile
▁Thérèse
▁couvrent
▁devenues
▁disciple
▁réprimer
▁couvercle
▁transforme
OUT
▁IS
ITES
▁Tré
allais
▁ovale
▁intégr
événement
▁invoquer
▁Règlement
▁deviendra
▁politesse
▁paraissaient
,)
PS
Ét
ùt
Gén
PREM
ervé
ject
▁Form
▁LIVRE
▁décro
▁livrés
▁Contrat
▁Piémont
▁médiane
▁pussent
▁internes
▁nécessités
fide
olic
énum
▁Juli
▁born
▁phleg
itables
▁élimin
imitation
▁indigène
ônes
▁Rav
▁plaf
▁séqu
▁TROIS
▁sauter
▁valent
▁entrait
▁épiscop
▁officielle
Os
▁DIV
▁Rév
opium
▁infec
▁régén
onnière
parable
▁Premier
▁martyre
▁récidive
▁vocation
▁croyances
▁introduis
▁couverture
▁violemment
■'
▁Pé
▁Suc
▁ému
▁idem
illard
▁diète
▁indéc
▁échec
▁répéta
▁Camille
▁captivité
▁embrasser
▁restèrent
▁congestion
▁emprisonnement
Fer
▁Nov
athie
mbles
▁lueur
éraient
▁royaux
▁platine
▁compositions
▁bû
teste
assait
▁germes
▁réquis
▁éclater
▁dépositaire
iéme
▁hur
▁caut
▁aimée
étonner
▁détest
▁regagn
▁libéral
▁splendeur
interdiction
Aix
fut
▁*,
olat
▁Evêque
▁condens
▁exposées
▁parcours
▁développent
▁missionnaires
▁scientifiques
KS
flu
▁nt
vaux
▁berg
▁coins
▁explic
▁quinqu
▁commise
▁arrérages
▁indemnités
▁bourgeoisie
▁cylindrique
▁vraisemblable
▁sat
▁fléau
▁étang
colonel
▁analys
▁projec
esthésie
▁corpore
▁médailles
▁Gou
▁Pot
▁Sem
▁éri
breux
▁fupp
Auteur
vingts
▁sirop
illages
écarter
▁estimé
▁payées
▁dorsale
▁recevant
▁débiteurs
▁éloignées
▁distribuer
entrepreneur
rau
AINE
icales
▁doyen
▁lobes
▁sueur
▁séries
▁ventri
▁fardeau
▁dominant
▁grossière
▁Gouverneur
▁plantations
▁suppuration
sch
està
▁Ele
▁hyg
▁blés
▁quia
▁Dumas
▁ranim
▁refuge
▁talens
▁venoit
▁cortège
▁semences
▁comprises
▁équilibre
▁graduellement
▁Lor
OIRES
essai
geant
▁Sens
▁cave
▁cogn
étroit
▁subsi
▁Aucune
▁arabes
▁berger
▁mélang
▁Algérie
▁Maréchal
▁provoqué
▁terrasse
▁pardevant
▁utilement
▁habitation
▁successifs
ota
▁cf
Rien
aure
emmes
▁Sorb
aissée
▁Excell
▁George
▁flatter
▁promener
▁remercie
▁soupçons
▁momentanément
▁hé
▁Orig
▁Page
▁Bourd
▁insin
▁assass
▁descente
▁servaient
▁désintéress
▁alimentaires
ibl
noc
ANTE
asis
vois
▁Puy
iscop
▁curés
▁loisir
▁nègres
▁pourrai
fications
▁justesse
▁incompati
▁Mél
▁éru
obert
▁Mach
▁cyan
▁Physi
▁basil
▁joints
▁phases
▁consistent
▁rhumatisme
▁prédécesseurs
unc
wick
exiger
▁bronch
▁déshon
▁expuls
▁priver
▁censure
▁prépond
▁disparut
▁préférer
▁condamnations
FOR
ilh
inets
▁réch
appliqu
éclaire
▁Gaules
▁cancer
▁admirer
▁caprice
▁collier
▁plancher
▁préciser
▁vertical
▁apparaître
▁publications
Pas
nos
▁ec
▁Ant
▁Rub
▁Vou
midor
▁Buff
▁autr
▁joies
▁loges
▁Saints
▁huiles
▁pénale
existait
▁Article
▁délicieux
▁prenaient
▁pâturages
▁royalistes
▁cultivateur
▁prohibition
iie
▁tl
eral
▁tan
dions
▁mitr
▁canne
▁chari
▁recru
métique
ortable
Evangile
▁Section
▁commises
▁communaux
▁continuité
▁misérables
▁professions
▁vétérinaire
Tel
Edit
▁Mess
▁duel
▁engl
ustave
▁légales
▁syndics
▁exécutées
▁ambassadeurs
Att
bie
ctive
▁lundi
▁sexes
▁faveurs
▁houille
▁abeilles
▁brigands
▁collègue
▁pardonne
▁sommation
▁impatience
ustr
▁Hon
▁émer
▁évap
▁hache
▁pinceau
▁accordés
▁renversé
▁actuelles
▁privilége
inspiration
▁articulations
▁dp
Oise
breu
▁ben
▁fuc
▁lâch
▁Rouge
▁calam
▁daign
▁éloge
obtient
▁Marcel
▁Blanche
▁dirigées
▁minéraux
▁régulières
▁postérieurement
aulx
quoy
▁God
▁consé
▁fouet
▁incis
▁Merlin
▁obstin
▁engagés
▁glisser
▁pourvus
▁probité
agitation
▁barbarie
▁traitant
▁gastrique
▁personnalité
so
RIC
éval
ouler
▁Dont
lèvent
▁Douai
▁frein
▁moule
ertoire
▁favori
▁frappa
▁pentes
▁simpli
▁étages
▁saurais
▁quittant
▁alimentaire
▁fondamentale
▁innombrables
:'
rof
▁gél
ansén
effici
▁rémun
▁étonnant
▁primitivement
▁administrateur
▁ee
▁boue
▁hôte
empêch
ionner
émique
▁barque
▁proxim
▁voûtes
▁détaill
▁foncière
▁hospices
▁insignifi
▁contenance
aid
▁Ru
▁SAL
ancre
▁caufe
▁attiré
▁indisc
▁isolée
▁révolt
▁cousine
▁sainteté
▁sinistre
▁problèmes
▁équations
▁poursuivit
▁Considérant
Col
Val
cet
inent
▁Héro
lorure
▁plats
▁conçue
▁essence
▁irrésis
▁remport
▁complice
▁félicité
▁voulurent
▁négociation
▁intellectuel
esl
fai
iri
▁
e
s
a
i
n
t
r
u
l
o
d
c
p
m
é
,
v
.
'
f
q
g
b
h
x
à
è
j
L
1
y
;
E
I
C
-
A
S
M
ê
P
D
R
2
T
0
O
’
N
8
)
3
z
(
—
5
4
V
B
:
7
6
U
J
&
9
G
F
H
«
»
ô
â
ç
!
î
?
Q
ù
û
~
É
X
k
°
*
ï
"
œ
/
^
K
Y
w
ë
■
W
•
[
È
Z
